fcf6110102041707fbf3f702fe000ee9
00f70dfefef200fffff400fc040e0202
fbf500f405090ffbfafafe05fcfe0508
03fe10eefff9fb0404000d050606e809
0af709e2f7090a03fdfcfc01f6fd0904
f005fdfa02fffbfffcfafe0101040301
fbfe02fe0900fbef02edf801f8f1f123
fefe0b0600fffa08fbf20c0b030a03f2
070ef3f70000f211f6f405ff160311fe
f8ffff03fcfefafcfefd04fe04040200
fcff0303080d05fefcfa0901eff719ec
f60305110bfce101080302070b060504
05f5040303f21f03fbf900fa070202fa
fa060af6fb03fffafb01f8f90705ff02
f9faff03fbfd0af906fffa06fae5fdf4
0712060f00ecf6fb04020909f704eeee
07fcfcf9ee0015fbfafa03fa12f7f70d
edfeff04fafcfffeffff05fb04060304
fcfbfbfe14fbfe1105f510feebf5ee03
f60401f101fcf7050ff2eff016e8ed03
0e07efed0604f602fefdfffceaf40907
f9fd0201fbfbfc02f9f900fa04050501
f901fdfc12f2130bf90803f9fbfc0506
0509ea1018fe0a09fcfef9f8f609f708
feeffff4fdf503e106fe01fb0403f714
fe01f7fbfc06f9fd03fcfdfb00040302
ff0102fffe070503050300f3fd0304f8
0b0309f1070df007fe03ef151113f8fd
f101f3ff0304fffffefc010000fc0202
fefbfffcfcfbfdfdfefa01fd03050202
01f7000109f903fdee07f501fe09f002
f80206fef707f6010100fdfe06050ffe
07100002141004f6faf8fa01f70e08fc
f606fb06fb01fdfffdfefcfc03040502
fcf8fb02090001fa11fd0005f1140014
07fcfefe13e4fff8f700ffeff8fafcf7
ff000a010cf0040501f901fcfbfffc08
f8ff0100fa0200fe00fefdfd00050103
fff6fffef8fefb00fd05fc0309f1fd01
fa08ef000407f504f705fd00ee050afc
0208fbfff9fffc00fafdfcf8f8eafefd
f8fe01fefbfcfffcfefcfffc05020207
02fcfbf7f0000304f91003fcfb04fbfc
05000400040cfcfdf6140002faf3fe06
0204020004ff0f1afa02fdfc0127fd07
fb0202f5fcff04fffc02fdfc06030202
fb01faf9010303fd011102f80102f7f6
01f401f802fe080bff05f6fcff101321
f6fd0a0307f907f6fff40000050002eb
03fa0502fafcfd0102fdfc0105040502
02fbfaf90af5effceafdfaf304070501
f811f906ff0601f5060f02f5fe0404f1
02f1f5fdf1fa0003fc0401f60110f701
ff0603fa03fe02fc00fefffa03fffe08
fa0403f3fe00080303fbf301010ffefd
03fceb0cf803fa06f90a1002e9011808
190df5f1f5fdf5f301fcfcffe6f5fbff
08f2f9fffd02050100fe02fb04040001
f9fafc05f906fe010006fd0bf6030f02
00080a02fcf80209f70dfa13020affff
03eb03f60f1709090503fb02060a0515
faffff05fbfafdf902fcfdff05020401
00fefcff040afd0cf30004f402080213
08fd0103f90a04030c0ffd07fa02fffe
efef02fde0fc07f3fcfe03f4e000fef9
01020402fa00fafb03fc01fd05010102
07f80004fc1cf80710edfffde61e100a
ecff01f5ef00f6fdfe020df715060d02
1cf70dfd07040700fafefafdf9f7e8f9
f3f7fdfafc01f900fafcf8fd01020502
fbfffefc0ff00f15fa0a00eafaedff02
e7020bf404f805f81d080a1302f6150a
030df1fcfaf41e0206fd02f5f908dffb
f9fe03ff03fafafe02fffdf501040507
0205fdfbfa0dfe03f51507f7faf1fafc
0813f4fbfc1006fd0502eb03fc15f305
fef90d03fff50bfef7fd0204fd0415f4
fcfc00f4fb01f801fb00fefd08000001
f7f400fc07ff06f4fbff0b07fa0af107
ff07f4fffcfe090401f3100d02f2e702
05faf4fd021aff060401fef8030efc09
03f302fc00fefffc00fef7fa01050205
06fd04fd040d0f03f4fffdfaef080412
0a0b14f9080aff050a0b111009f80b05
05f80af9fbfffafb05fbf900eef205fd
0104f6ff04fb03fcfafffbfdfe050101
ff01fcfffe1004eefa0a0cf8f70706f5
f908fbf80cfbfdfafe0b1406fb0bfbf9
02fc0a0300e80003fe010afd000803ff
fa06fbfdfcfcfffdfbfd05fb03020003
fffb06fcfff0fbfe00f8f902fd24fefb
fcf203f5fb06f90500050702fefcfdfa
07e904f5eb0807fefbf9fbfbee190a1c
fc070001f8fffdfcfb01fdfe03030403
fffbfdfcfcee020104f205f304f702f4
f50504f8f5160201fa0cfdfffc0401fd
0801e8fbe6fe1006fdf90102ee0604f9
ff01f805fefc05f8050200fe03020203
02fdf6fe08fe050a07ef09fcfc011405
0009fffc04e905fee6f916f604f6fc00
f6f6f203e81d06f9fbfafe0508f8fbfa
fcfafcf900fcf9fffefcfa0005060202
fefafe00041604fcf302eff90506fbf4
0a0afd06ed00f8fde2f6081104fa070a
08fcf30206fff10a05fcff040802fdfc
fff8fefcfefaf8f6fdf9fb0504060201
fafd00010805f61004fffefefd03fd01
fbfafefaf3fff3f3f2fcf706f703fdfb
0108f4fc0914120003fefdfe00f906f7
fefd06f7fafffffefff7faf903fe0203
00fcfcfe1407f80b12eefaf306f6f0fb
02e910ffff1008f515020afefd0801fa
0ff7fd0707f3f7f30201f6fbf6f4f7fb
f406f9f901f9f6fd0103f6fd02010904
fd05f7fcf20008050efdfaf4e40501f9
f607f7ea08f7f719f7f001f007fd0a04
0200f5f30f0b0510fbfcfa0408fffbf8
fef5fe04fafff9fdfcfffa0207040500
f8ff00fffffd07f704ecfc00fcfa0206
03edff0603ff000507faec03f615fb0d
02fb0104f50a01f3fefdf902000c03fa
fcf9f8fb00f7f905fdfef90102050801
04fffaf80cf9020708f800faf90903f1
1401ff06fd11ffed0dfa00001ef802fe
00f907fc08130c05fafffe0105fe05fb
00fef5fafdfbfdfbfbfefd0105ff0202
fb06fffcfd08f909020300fb02f9f2fd
00fb0e0704fefa01f9fa0f03fef9fc04
0308f5f911f00dfa02fafc020e1afff8
070603000001fafffcfeff02020302fe
fb0000020a080302fae6fbf5f5f8e500
fff016fa1204fff51ae6e9fe08ea0307
fae9fb0cfff907fcfefef9fbf90e03f6
01f9fcfc01f7fafe04fdf9ff05090605
fef8fa000800fd12ff0804080c090000
0909fa0af80100f917fdfbfaf3f5f80c
0ffbfff608f6f70400f8f9fb0ff7fe23
00f6fc01f9fdfaff01f9fa01ff040705
fef8f6020c040614edf8011c12f10bff
10000615fbeffa01f301fb0ef50708eb
010812030d0ef0f9fcfdfd0201f30601
0702fdfa00f5fa03fcfafbfe00020203
000105fcf8001ef70a00fc07e6fef6f5
1f030203fafbff0df9f90b07f704050e
f9fff70ceff3fef4fd01f8ff04f1f1ee
03fe05fdfbfbf902fb00f9fb03020800
01fafff9ff02f0ff04fa071003030611
fef215fcfff1140000fbed0301f40111
04ef07f102e40605f9fd00fe06110204
fcf9fb02f908fcfdfcfffffd0400ff04
01fc08fd00f3000a1200f305f20bf2fd
04f70bfbfa08fbf8ec1210e41cf703eb
0c0afdfb0d0605fdfcfffffe030bf505
08f90702fbfdfbfbfefc02ff01050301
fdfbfd0007fef10000080df6f40a08f9
07f5fafb0600ed0304e80d0811eaf6ff
0301fafef5f9ed08fdfefbfdfe02ec0a
f703f7fdfeffff02fe01fffd03010002
fffc00fd09060f05f2f5fe00faf40c0e
fef9f4fbfcf8fdf4fffef704fe011203
fa040702fb08fef0fafdfafded11fdfe
f800f8fcf904faf4f8fdf9fc05030702
fafaf8fe01e7fa0412f50c0c0ef002f7
04f906f8f6fffefa06f9ffff0104fbf3
06f40d01fa08f50301fbfff8fa0d0202
0607f4fafbf6f8fbfafb03fb03050007
fcfd01f90bfd01010df604010df51701
fb01ea01ffffe500fdff0100eeed0305
00120000fef3010c00fefefaec210c0b
02f8fdfd02f7fafc01fffffc03000105
ff00fdfef9ff05fef1fbf2f8f6fffdfa
f709fc03fd05f5030ae7fbfaf601faff
0fff02f8f3fcf6e6fefb02feef26f911
feee01f902f902fefcff00fd0103ff02
04fefcfd0002fb07f0fdfe0af91d0601
fe11ebf30a07fb0902fb05f7140310f7
0ffe0206e8090cf1fefd01f805110cf5
0403f703f9ffff04fefefcfd04030201
00fffbfbff06fcf1f9fffef8eff9effb
0afaf50b0600080af1f70d0beffcfb0c
f8020000f1f4050800fbfa00ed0a0512
fdfcfcfcfdfefcfe01f9fdfa02040603
fc00fbfefeff040600fe000900f2fe08
f705fff5001800fbf504fffbfbfefe07
f5f61003f7faeffa01f8fffc01f7f9fc
f808f1f3fb04fdfd0302fc0205060306
fef9ffff10e708fe05fb0df60dfef2fc
1010fe0b08ff03fafef30108f312f4f2
f8fafb00f7f8fb03fefff7fefbf7f804
fffefffef9fcf8fa00fdfcfc02020202
02fe07fd1b09ff04ecf502f701fc0ff3
f2fd03faf7f60301f4fef6fc0e04f9f1
0000f800030e050604050dfcfdf3fbff
ff0403f1fbfef9fc030c070200030df3
00ff10f9fcf2ff00fff306f0ff0011eb
020a14fe0003f504fe0bff090002fafb
0604eff1f805ff030305060dfefbfc00
f90f05f409f6fc030005050101fe00f5
f3f1020b00f9fafd000502fd0110fdf9
2201ff07f7050008fd02f4fef0010202
00050104fd030400050a06f702fc00ff
03ffef0cf8fe0af8f6000005faf60b0e
08010dfcfffafffff101fd0406eb0606
fc01010401f4ea0c0e02fd04050904ff
02e3f3ff04070200fc040afbf8fdfcfd
fd0d0e0dfa02edf1ff03000207faeb06
08def40cfd0502fefe030bfb05001102
f702fa05fdfce4ff01f500f2f7f2f201
f6090c05fc0603050000f10402fdfffc
0b19eff0f9fcecf8f3010201fa000703
0307fa0df9fafbfbf4f4f4fefbffde0e
f80108fd06f0f50d09080f04f5ffff11
fe0509fc01010601fc07fd05fcfffefd
eff8f4f90d09fd12fffcfe05f3070d02
fd02fd0203fef9030500fb03fe12061c
f4fffc0010170afb05ff12feef0a07fd
f50b10f60002ff0002f30a0200fcfe00
f204fa00fcf6fc13010afcf905ebfeed
0107fb08fdfffdfe01f601f5fb0105ee
fbf8fb12fb00130f05fcf50102050715
04f8fb000402ff020603fefdfefafdfe
03000a0305000c0009000300fc0bf1ff
f402f403fafdf9fefd00fdfdfe06f601
10f9f9fe0702f6fe0409040612f2e901
f614f70505040508fb0207fffcfdfbfe
f8ee0103e517fedefefc06040ef302f8
f7f2070afefef90000fafaf80b020005
fe00fbfc1205faec10ff02f608070125
0e09f9f8fc030404f305170501fefcfd
fa0bfcfeeb090b00f900090608060603
0dfe0809ff02fafcf7f8fffefb020407
0302ebfc0402edfdfa09f800ff0af8fe
f901f8fe03fdff0615080708fefe00fa
00ff01fffb0a0002fdfcfd06f403fffd
f1050300f6fdfef9fdfffbfdfa1afcfd
04fa01030800fefe0d050200081703ff
fdf507090402020204fff706fcfefffc
05f101f600110bf70400050103e502ff
00000620f9fe0100fafcf8f801f802f2
fe1301f600f511f203fb0f11fd00eff0
04060b0304fc0805fa0b02fefe04fafe
00fafdfa01f5ff00fef10f02fbfe02fc
01f7f809fdfefc0101fbfafcf0f80400
02fd04f005f2fa12020b03080703fe03
120000040702fb05f9f70dffffff01ff
fff9f9040c0406ff020a02faed08f503
09edfef50301f905f1fb02eef5e908fb
0ef70001e710edfe00f9000d090deb01
f602080d0400fb020a12fa0cfdfdfffd
01000407d80f15effffefa08f5fbf116
110eeffdfffefefcfbf805000a0b0211
f10a08fcf0f304faf9ff0af4f6f3070a
0716f700010105fb08fd0702fefcfdfe
fc03001a041d02f5050306fff605070d
0603050afbfdfbfdf7fffc0301ed0203
090afa150401fbf30afd0208fdeffc06
0df9f2fc08010204f906fe08fe00fffd
0503070319fb1301fefe08fbf1fc07f8
f6efec00f800fefaf7f60209100deb02
0507fb06f3ebf9fcf505060507f5f9fb
f104090104fd0606f70b0b04fefdfdfe
f60dfc0417f80407f9020409040000fb
190d0efb03fcfffff907f3fde71cf4f1
0e07fc0effecfcf905f70004f208060c
fd140b0900010605ff0104fffffffcfb
fe0af40a0215120a09000404f80b0b03
f7ee04fcfbf8fffef70501f500050a04
fafc020300060e010c06fafc06220600
fff110fe0701fdfd080be70bfafd01ff
fe04fafe0003f5fd06fffe0200f310fa
fef707fef9fffefffb01fcfc020bfc0f
030b11feff09fdff010500fd010211ee
0e0014fcfeff030201f2f10a00fefbfe
f0fffc020cf7fcfc03fe10ffff010003
f8ff09fff900fdfb02fc01ff01f01801
fb03eafdf7fcdf07000c1001080c0501
f5f1e8f009060900f4e9f115f9fdfcff
ff10081301f5f90e110506060ffe03ff
fceffefa02fe03fd0bf90c01f503f0ee
ff0f02fcf9fe0afafc0702ff0507fefd
fe0002fa030b0103fffc0202fcfffffd
040c070700fc01ff020108020202fd09
0004fbfffc00fafefbf2fffafe060002
02e500faff030cfd08fd080902190100
00fafa1307040604ffe70108fefefdfc
f80a01f604fdfe0001ff07fe0add07ff
0d0406fefffffcfdf600fb03f0ee0308
fef6f9f40226fefffff603fefcfd0000
190c00ff070102051601f603fdfffd01
deebff0fff011103fffaff001be708fe
e6fe13f9fcfcfdfff803fdfde60ffcfc
f9f70004fffced13000c0f13fef00308
08fc01fe08070103f0ed04f2fdfffcfb
06f608f1080efa0007fe0209e5ff03ff
f4e5f202fe04fbf8f4ef0203f502fdf0
e50c0c000afe0bfd0403080b050702ff
fc00faeb0a06ff01fe02fc04f7fafe02
0a06ffff02fe0eef120600f80a03f5fc
fe01f3f3fff8fbfa02f90601090405ef
09020ffc0501f209fc090306090209fb
fd03050601ff00fe01fcfffffffdfffe
07f8010d0df5ff04fefc04fe05fd0dfe
f328e1fcfa010000030101f405f91bfe
fb0bfdf4f70ffd050b0cfaf800081206
fef90100010109ff0afc05030001f6fe
f7eefd0ad4030211fafb06010f24f7f4
09f8f806fafbf8f6f6f6f8fdf40cf809
e5050d07310c01fd08ff0510fffd0aef
fffc06fb0401000002f90a00f9feffff
fe000d0b03f3040302fffb040610f610
0a0efdeefafefffefaf7f10307edfd05
fd07f601020e060f03fef813fbe903f9
fefcfd0cff020801060402faff00f8fc
00f30417fb05fd0e03fd0804f8fd0409
fbf80113fffbf703fff6f70102030309
01ff01feff0f0010f60d06fee7fbff06
fc0e030106feff01040a0608fb00fdff
04e7090100f7fbfb08fa02fd070bf600
08000607fbf8fffffdfe00fc03f70200
fefa0800fd0200000104fd00fbfcf3f9
0b0a0904fc0703fffd0eed05fffbff03
eafa01ffeb08f40506070301e9fd04f7
0300f2f202fb00fffefffc01f3f307f5
f0f300091e0001fdfdf70401eaf8fe0a
0506f70008090806fe0806f0fdfafbfe
0c0101fafd09fef6060208feff000afa
07150b140700f9fefffafaefee0607fc
1207f9fff80efef2010605f9f908010b
050df802f7fe09080f06f7f900fcf900
0a07fd10e9fc0607fffa06fc1303fd09
01f6faf5f8fa00fefdfff8fbf50af9f5
01fb03f9f6f8f80310fe0af9ef09052e
fd0909f5ffff0002050af1f7fdfffeff
fff2fdf7fc1401fa07000306dd0afb00
02fbf2f305ff01fb0afd06f70eed0af3
040efaf9ee0c0202fffd020eeb00fe02
17d50b01030602010501fc00fe00fcfe
0bf906f90ae8fe050201fc02f11af5f6
fdf9f5f7f900fd05f4f703fb070bfafd
fe1107060d010fff05fcf406f304fd00
f8f6f7040002fb06fa0808fefdfdfffd
01010700efe0fd29fc06010401e3fbfd
fe00fcf4f901fefdfa0607fde701fc18
0901090bf70903fbfbf6ef02f70601ee
0801fb09000b0a0010ed11fdfffafe01
111403fddfed0200fe07fefb080e0203
04eef50efe00fd00fbfe04fa0df2f5ed
f7feec01ed080b0a0a01080307e6f206
0d0200fc010304010908040afd00fffc
f6fff4f60511ff0ffd030405eff4fff8
f9f1ecf0fdfc01fafefbfb03fae4f4f9
0a00fe00fff1fc05f503f90b030ff7ff
fefe0103060304fef202fcfbfb00f8ff
09fefefdfae0f9180607fff8fff60408
00df07ff0001fefaf5f9fcfd02110903
0ef5fb0bfc06fffb050203f6010df705
f5ff09fc0b08fc06f8051805f8f904fa
020af5050b0800021109f306000c0605
05f7dd0301f6f8f80b06faf9f6f20501
07f105fffcf210fef5060b03fc0f11fe
f9f4fc030c00fd04fd070205fbfe01fd
fbf6fc09fceaff060f06f805100ef5ff
01f5f706f8fffcf9ee00fffdfdfd02fc
000c04f9f2f8fcff03fc060112f502fb
f70ef30803050002fafe1903fefefe02
0f03f101f520111107fb05f6fc1aee04
f3e0fbfeff03fdfefefc02f8f601f6fd
05fdf9fefa10ff0d0810060406fa08fc
01fffef30604ff02010a11f1fdfefdfe
04fffaf003fe00090705fe041707ed09
e40f0806fcf9fcfe00fe0100020efcf3
01f2fefdf905edf8fa02000a0207f60d
05f2fdfd030205020d170602fefefbfc
020fffee04fb04ef01ff0401041200fe
01fc04fffcfef8fe00fffa05fd0d0013
fc02fe00fb1cfff901ff0104feebfe04
020d14070504030502fef6f400fefdfe
f70efc09f0fb0406fe0801fd160106fe
f70c0d010100fdfef1f6fcf5f21607f1
fb0c0e03fbf1f4ed090202fc0606e1f9
fd07f90704020103fe050e0a00fd02fe
f0fa0007ec0006060300f5fd0bfa050a
f9f4000dfdfffc00faff00ffe1fc05fd
0107fd04fb01f5f30703060afd0bf8f2
040e02fb0202f9fffdf8040cfcf902ff
01fc0506fefdef11fffd0b0101021300
0410f2fc0502eff2010c0803040d0103
feff0907040d160103fff9ff010106f1
01060503ee0e090af4050811f2f40401
fcfaf408f1f61200fbe7f1070afcecf6
fc1009fef30902050104f805ff04fffe
f9fc0a00f6fc04fc0907100a0403f307
00050402f5f8f901fefb0700f1f5f8f6
05f105f70003030805f8f5f8f0f8fdf2
f501060d030504fd0309f90c05030306
ff07e6ee0105fcfd0bf8dffe06f2eef3
0801000203ebff0107f8060d03e901ff
fd0908ec01ff010b0afbef02f30416f6
fb040704f2f4f400fc04020b07fc0402
f8f612fafcf9fc0f0104fa0ff40ff1f1
06040207fb06d9fbf90a06f912f6efff
110003ff05e205fffb000405f7fd0804
f800f607f4fe0f0604fffc0107030106
fff5f9f80c05fefafdf2ed0900ff0afc
000506030ef4fa09f8f90002f7f40813
120d050b09fcfff4f503fd01f8120df1
011200fc0813050110f7fafcfc040606
12020304040b060b02f70502e30914f9
03020505fdfe0616fa181102090bf700
fa1308fb01050a1701f410f6f9090c0a
fff40cf70103f50c0903fcfa0702fd09
02fd1107fe070103fb05f9fc0a03f6f9
03050502fd010801f408ef01fd020a03
00030bff00050c01f208f7010b04e0ff
11fb000012f8fdf90c00f90300090302
08020afd09faf900fcfa03ff06fc02fd
03010601041b03f4fc0c011a0aec02fb
fdfafdfffcfc0211f6df0df50f00fa05
0d050206f504f80f03130409fd020405
0806f90ffcfb05fc0cf6fffffc0bf8fb
02fe0403fa02ef06fa07190317f61ffd
f2f800f604f7f706090aff08f60a09f4
fbff0806fbfe0bfbff000200ff010502
03f8fcf80cfef605f90c030306020ffe
0a010207f814fe04fdf6f6fefafa01fb
f80c0304f61203fcfcfb010407140d02
0a01fd0701ff0303000505030a010306
0304020204060106f4080a02f6f3ff00
0603ff0101eceeef00090cfefbe5fdfc
fc0af70a01fff6f904f20600fb1e12f7
02f80100fcff09dd0404fff505030405
fc03f2050401020201f5f804fef9f901
050500fff8fdfafcf709f9eefb0af70a
08080d0102020a0d0800fef6fe06fc07
fd09050707fd03f5ff03fef7030202fd
01f908f200fff50200ff080bfbfefb08
fe0203ff0cfd07f902111302ed0b14fb
ff02ef0efa10d5fb0d09ff0311f30207
f8fbfe00ff0f1209fe0a0103ff060903
01ffeffe0afbfb00f4f6fdfd0005f801
02010505effdf2fedf040516ed10fd0e
07f5ebef08fb0afc10f7fef319020006
08fbf7ff06101212f8f308fffe00fd04
fe0b020306020f0e1dfb0609f319f60a
060403040302010b09ef03e80a0cfafb
0c02f7f9f213021cfb030b031500f521
080806fbfefff3e3f9fc04f80a05020b
02fffa10f90206ff04000007ef09f8ef
050001080405f9fe10f9feff050a01f9
e7090bff1cf0040605fd03f8f502fc01
0df9fe03070904070204080100080305
020007f9f6ff03121917fbfef8fe02f6
ff0301ff1409eef6eaecebf6f7110efc
0f0fec0cf9fd18fc01ff0beaf5ff0214
010b060a0a15fb10fcfbfc0200fe08fe
050a250f090a0209fafa070be802fb13
060301020108f3fd0001090105e0f308
f50501f7f505fc03fb0dfefe05f80a02
fe0b0f070efb12fb03f0fdf70afffd02
0306f50103faf30106f800f706f9fe03
070002ff02f70703fdfad7f7fb140814
01000becfefd15130007f9ef03eb07fd
08f401fe0706efff040d00fc06fd05ff
040e0914060c0a00000102fc010bea0a
0705030304120606f8ff09fafefc0800
06f61101fa0dfe0c020615000905ea06
04fe0f07012313f8fcf8070008010900
f701fbee0301ff06f9f8140b13f8260a
00020000f8f30903f7f9f70d05ecfe05
f60a0003fef4ed0b000cfb0a03030810
020b0efbf0f7f500030808070001f806
1602ea0b04f5090900fb0b1102020aef
03fd0502fd0907ff00f6ffff0403fe03
0110ff01fc14fdfb01f7080901e8fefb
01060000f91af9f60300000402fe0905
ff1302fc030c03fe04f102f5fceb01fa
02020305141602f008ea03fd11fefa06
0109fbf807e9fef500f70afc031ff4ff
0b0c080b00f8f6f70d0904ff05fa03ff
110ef8fe09000305f2f0ff0415e2f916
05060201fa10f3fd090a0a01fbfe00ff
f9fd0412f1070dfe05ee09fef1f90d06
f106f60d0b0d110b000dfc0aff01fe09
eef401f2070c00faff0207f4fbf107ff
02fe0509dceff5fef8fafd0003f10411
080200fbf91109fefff9f0fff7070d08
07ff030706e811fc04100b0101000a08
fdfc070cf8fb05090e20020106090801
0107050602fdf9fcfafcf409f904f90b
04000702f7000a07ff0200e90000f7fb
000506030dfcf40a0407ff0202060706
06fe0908040503ff00000a04ff00f7ee
05030103f1f91e01fb0412fdfd010705
09f3f7f80110fdf8fd15f705050e0c0a
0304ff030df0f4020805fb08060a0303
0119f707ff0d090509f60ffd01110606
02040a04fee3fdf71104f804f303ff02
06fb0b01eaebfa01e301f2f50cec0ffa
02f606fd08fd0c01fff706fefc030a03
05fe0a17ff08060bea06030c08120cfe
070303010517faf7010bfefcf6e5f9fc
fae8fe0602fdf70011fd0501fe1206f5
fbfe0304fd160204fd06080808fe0605
f70e00ff00fa03f70d1302f3f9ee03fe
020608000e0202f6f10afe03fcfa0206
f605fdf911f301f4120e03ffee0efd08
04fe05fe0a08fdf7f9010604010607fe
f700fc03fbfe050c08fc030a03ebfff8
04070102050204fa020b03fbfbf6fefe
f6f4e807010312fb0907eb01f602f7fa
08fd0501f400fdfe040b000a03080001
fa0805fc05020906ff040702f6140008
ff0601feeaf6e800e200fafef211fff9
030be51002f0fff7150ff6fa2601f60e
03fa0c07f9f8f40907fbff09040203fd
03f8f90bfb0c0503f605fafefbf8f10a
01040503e9f403f8fdfc03fdfbfffffe
130ffaf7fbfb01fff9f909eaff00fb03
fd0c0c030bfdf6ebfdff0802fd020502
e9faf9ee0efb09fe010e0100eefaf6fa
020604042001fef2f2fe00150e0cfbf8
fc0411eded01ed0707100bf9eb04fe1d
ff0904061f02fdf4f10607fe040004ff
090f0404ff0ffdfb10edf6e40efbff00
ff010403fffd0a060100fe02f410e903
140115f5fd0a0afd1d0b010303f20203
040a040021fe170712f70108ff060305
fffdf3f80cff0cf90cf0f8111700ff0e
040005fc0114f90004fd08fa0bf90405
ec091412f7fd01f209e8fb0107070f10
0cfd0e02fbe30bfd14f8f4040a02fb00
fc030a1101010cfaf7f413f90cff060d
0501020411fbf6110305fff2f0f808f4
0e0ff304f8e61105f8efeaf1eff6f714
fc0004fcfcfe0fe80510ff0d06fbfd07
13f805fe01080608f6fc0e0013f302f1
0100020241f013ee050cf9edf7faed00
04f6edfc120d080007fbf3fbf8180a02
fe0b090205011ef5f90e08f506fc0105
011218000c06fe050c0ff9f206fafef4
04010005fa0109f4ff0602fd030005fe
f916e9fc05011206eefdfff20d03f504
fe04f9fb0b03fbf6f7fb16ffff000204
0d0413ff0609010104052cfd16fee704
01fe070504e80017f4f505e8f7ee0318
07fcfaf8ebffff0c08f00ae612fbfcfa
06fafd0a0210f30111fffef906fd0701
09f2000d0207fb0bf8f6ff1401fef801
01090407030bfc03fa09fdfe0dfce9fd
07fee6fc040d0903fe20070307f1fcfa
0d080504fdf4fbfb05fe0505ff090506
faf1f1fcff0bfc0402f4f9fffff200fa
05010304fc170205fc17030307f8f9fc
fa0afbf3fc01fd09f103000e08ff04ec
fd00ff070ce907f00f0d010106040603
070104f4fe090a09fdfbfcfe0905fcfe
03020102ff10fe0ef6fa0618fd141502
f0de10fefcee02f90304fbf300ef0cf9
0611fc05061707140100fa0908fa0202
05f414f104fdff02fe190cee08220d08
03050203fb040c060c030fecf0020607
06f8eff10c061bf90707ecf414edff0b
080bf70406f8f9fffe02010000040103
f4ef0cfe0a0109090506fa07f5f3fc08
03030702f90e0202f809ff0805fefff8
0506faf3feea0211020603f806f8fa12
ff020205ff10fe0b04ff03f702020501
0611fa0a07ff04fc0901ff1400fcfd0e
00fc0302ed02f90507f0fc04fff7f1ef
f009f0fb22100af8f609040d140911f8
f9f903faf811f8faf3f206fefffc03fc
1101fe02050f0b09ff1bebf70e0203fe
05030502fcfaf90ffaf910fc0102faf3
1509020004fc06fd08f2fd000c0ff700
02020afe1d1002050503fe0809040507
f90bfd000502fd0a0500f9010a0c0dfb
ff00fa0bfff606f5fc00eb29fcf2fc01
fdfeedf30200ea05030223fb040e0501
00f80703fff4fe0402020c08fcf4fff1
010904fbfefaf3fd04080a11fc0002f6
fe000d07fc0002fc040f06f600fbfcfc
07f606f8f8f1f817fe060cff03040404
de090717f004f7f515040d0904f7feff
fd080802f9f609e206fffb01001106ed
090a0e0f0003f400ef020a0b01fcfeff
0d0106f4f809ed02fbf5f50100050200
f4fe04fa00fcf4fff5fb100601fa0406
fd0603030a0b05fafa01050304f601f4
f7fb161cfe0201f90bf50c0ef900fffc
03e8ebfb02fdf7080afc0f1007010003
06ef00f3010200f8fbf80801fefd020b
0a040bff06eff10bf9eafdfc01080609
fa0400ebf8fcfd09f1f9170500fdfffb
f7fefdfd0312fa03f402fa0a03060404
06f2f10a00fef30508f50af90af4fa01
fefd0003fcff10ff0d03f7fa03140dfd
fb09ecf4fcf201fef6f209f5fefdfcfc
060bfffcfc0404020707080102020401
fd090501f80409fe0a02f7060508fd0e
0a00fd05fd0705070b0a0d02fe0c0700
07fb03f7f2f9ff05fef7fb0dfdfbfffb
fdfd0cfe00f7fcf90602021502030203
fee704f007f0fafd01f5fbebf90205fc
010007fffdf9f8ec05fcfcf9000609e1
0cf106fdfffa0afefe0f1505fefafefe
f00b00ff03fa06fff6ff080003050301
f3070a00f9fcfffc08f804fdfffcfa01
fd0a0103fffffeff0fef09ff0001f703
1701f3050208fff4020f0402fd02fbfe
00ef07e0f30901e7010b060003020601
0005fff6f901fa03fc01fce902f8fefc
0500030008050100ffedfa05e5080a0f
050311f9fcfa00fffe09fa0bff00fdfc
110df80701fcf800fbf7f20202020304
ee0802fefb00fdfb12fc0bfbf3fdfdfe
feff0700f601f203fd09fbfa050afb03
00fcfdfdfbf9fffd0305fcf9fbff00fa
02ff0002f908fb0007fd000406020107
07f1fc0208f6fcfc06080504060402f9
fc02020504fdff0402fd000105060102
f8fdfd00fcf60003030df5fffbfc00ff
04f204ea01f5f5020106e9e606030002
0115f802fbfcfffdfefe1413fdfafd0d
0209fd030414fc05fcfa02150000f30c
f5f2f80f040403f805fe01fefe02fd00
f2f5ff0d09f90102ff0bf9f804010201
ffff03f60afbfbfffc07ff02f902fef7
fdfdfefff9fbf807150116f60b06f80f
fb0005f5fd0403f2e9eb05f300fdff00
f808040f0fe905f3fd0a010800000201
f5f5e60200f803fafcfe1302fdf6f9fa
f906fd0203fff7fe0af90004fae9f9f8
0108f1f9edf604fb18fdfcfffffefcfa
ee1403fee6ff0509e907f8f702050304
eef90cf403fdf4f80d060f04f8fef707
07fd0804f1040508fbf7ec042dfef205
080cf601f4f8fd0005210afdfdfcfcff
08ec0af3f512fd13f5ff03f005030403
0604ff0203fafaf9f603ffff03fefbfe
fd06010206fe0008fcf0f7f8f5fc02f9
090304fdfcfcf5070311fffcfe00fffb
fdef0508f20af6f400fafaf602010103
0cf502f21207fb07ef08030af8fdfbff
f8fc04020afd0608fdfdfff7e91304fe
0b04f817f800fafc0debfae5fffcfffe
f0f70402f90f150007fef9ef02040102
120bf3fd03ff04fcf1fdf2fb010a0af9
06030001f40201f3f1040612010c0af6
eff50afdf6f5f40705f8ef00fdfffcfe
fcf1f803fe11f7fbfbec000503020503
0d000005ff0201f10e02fb000801ed01
01000703070101f8fb0bf104fae80904
03f8fafffc03fef1fa05000af9feffff
fcef111cff11f1f50304edf908030202
fef323fafcf9fef8020e0dfafaf9fd00
040304fffff4f4f9030af902fefaf201
02f606f9fbf605fb0103fd0afbfdfcfd
f9fa180c01f50df61707091103050104
fa08f7fe06f6fef6ea06fbf7fa050ef7
000cff02010d050004031408050c1306
f907f90a03fffdfd0ef502f1fafffdff
faef1e020af3f1080f04ff0301010201
fc140502050408f9fdf11f01fffa0505
07ff0702faf9fc080af21c07fdf1070b
0411f5edfcf0f5fd000b0804fd00fdfd
01e0fd100000fbfbfd0d020603000202
ff0905f9f9030cfbfd0908f5fffd04fd
0500fb0302f30503feedf9f5021ffd04
090ff8ff060bfe0503180900ff00fdfd
0a0c0617fd01011a08fe020301020402
15ecfefd0507fb02f014fa19feeefef9
fd07000a010b030a00edf8fa020b0004
0ff809f4f50a01fe1c0815f9fbfffc00
f90ee806e509f80208eaf90204020400
f213f703f5f6fc08f80111fdf4fefb00
010503fdfcf1f4f1f801040de9ecedfa
03040ff20ff3fefd0fe60109ff01fbf8
0805f9fb0611fd07120cff0900ff0306
ec02ff03030cfdffe8040302090300ff
f8fa0804f202f3f4ffef1000051e00f6
05faecfef3fa03f9f905f509f8fafc00
130302f8fcfefb1800010bf906060303
fbffff0205f9fb0b06fcf4fbf9fd0101
0605040202fdfe0605030807fd02fcfd
f70005f4fb02f4f605fae909fdfcfe00
05e7040002f7fdfa09fcf60703020101
f406010f0a09faf002191f0b02f4fe02
0309060e04fe040404f40008030013fc
f70211fd0000f80009f2ef06fffff6fd
0dfaf80b18feff03ef18f8f003000905
eafafc12f6fef9fe0cfe0802f7f9f8ff
ffff0bfef507ff0502ff080ff0f8f902
faf0fdf2f906f3fd12f3010cf9000000
06140400fcfaf5f1fe0606f608010200
03ee0f04fb0af504f11a00fdf6fffdfa
09ff0901040303f1faf80007fd02fc06
0607fcf1fbfbfafef9f90408fefef8ff
f408040405feff05fa03fffe02030802
f9fbfe0cfffbf8fd0ffcfb070904fbfe
fc000507f9f6fefe0b08fe03e4f702fe
f60b140aff05f4f1090006f9fbfefdfd
0809fd05fff1080401ee05fc05020403
00f7fcfefa04f600f9ff0700fbfe06f2
0102060303f10502f8f306ff040b09f8
05fa1711030c0100f3fbf1ea00fbff02
150500f7170f0d01ec0801f8010400fe
f203f0fff70601fe1d02120bf4fe00fd
0a0001fe0af70ef5fdfe000b0811f9f0
f205ed17fdf6fdf10bfa0e12fcfafafe
22030ae000fffcfb080d09ff03060604
1402fbf8fdf9f50009fef905fd06fefd
030203fb11fd02fc0205f9eef6fa07f6
0dfafff40b03fbfb0a03f7ea01fefbff
07fa00fa04fcfcf1fe0804e402030503
f50300f8f8f8fa0d170e00f0fdfef4fc
010a0804ec0702f40307f403f20ef8fb
ed0806fa01fef9f904fffdf2fefffdfd
fc0526eeee07ff0b0bf8f31200010103
ecfdff04f2f1fcfd070aea010b000705
0b040cfbf1fd0ff50efb010108ec1619
120bf7fd04f8f7fbfdf6ffe7fefefc01
edfdf70a0cfdfff20d0d17f8020205fe
ff1df5fafcfff7f902fe0402fbf5fdff
f6010504fa10fc0607f706ecfc1014f3
000b22e807fffc07040705f1fdfcfefd
fc04fb05ff0a000901f0031603040202
1517f9ee03f6f9090bf907fefdfd0507
030a03f8f31203f2fe0108fdfa0b0704
f203eb07ff02f5fef2efe7fffefe00ff
f901f20807f4fafeee10f4ff00030101
0112fbf20209fffd1d13f30bf802fdf9
03030a00ed1dfefafcfbfcfcf81911f8
1b0af9f4fbfe0007f1eaf302fd0001fb
fbfcf811030dfa0cfdf2e5060401ff03
fe0910f803fb01f80a0be1fdfbf80c05
03040105fe0806ff160503f701fb0d07
0e00f600f8f9fcfcf3e3040efdfefafe
fd16060dff0502fb09030bf602000602
ebfa00f5f7f3fefdfffdfa0401f9ff01
03000a06080206f5f2faf5faf502ff10
f7f305fafafefdfd080bf705faf801f9
07fb00020a0021fdecf0080404080107
ff0610fdfafefdf9feecf401fef4f9fc
0a0efd03f0f11101120be8fcf714fd00
07f204f403fa01fefefff312fbfefffc
f813fb09f8010b020307fe0603000205
fe1a07090bfe06fafd0107f7f507fbfb
f9030301fef903fcf5ff1d03faf30007
f214f4f9fefffd0001fef10bfdfffeff
fa0a14020005f7fa1501f50201000100
05f504f50e00f9080afc05fb0206fa00
fdfc0af80e22fdf2fc02f9131209050c
16eafef8fa03fa051811140afcfcfbfd
f50401f8ff031009fd09040b04030502
f60901100300f7fbf6000c03f800fafa
ff020602fefff4f808fb160ae10509f6
fcfbf7faf70afefcf6d204fcfdfcfafd
05fe0102fcfe01fdfa0c040304030703
f40e000aff00fcfcf8f4ff13f5fffd09
00fd010805f7fffb00120107fde30406
01fffe09f6fcfafb090a07fbff00fcfe
fc0efaf701ff0b080fed070402010405
e719fbfdfafdfb03f713f8fbfcfc08f7
fbf6fdf9070a0607fa14010df4efeb05
09120af9fefb05fbfff7fdfffffe01fd
eef6f9fa02feeffdeefcfb0401020003
fefff4fc04000901fc07130806fc0bfe
0206fc0206f905f8130ffc11f6ff05fa
ed070fed031bff04fcfef9fd0d08fafb
00fff60000fb03fcfe02fafc04050303
f9fbfb01f4f40509feff0af50c020a00
061316fdf4f20002080c00f7eb0c0b00
fdf70906edf503040206f603edfdf3f1
faf508fa0102f9fa0003fc0003020401
010102fdf9030300f8f6f6f401fa02fe
0c10060c09eff8fe000a0206fd001209
fdfdf411fcf909f2fb02fffdf307010c
00fbfd000200fdfefc03f9fd01040004
fbf401fff800f209e104ecf31afae201
fb07fff303f312ff1608f4f1f80903fb
f7f203ef04e8f204f701f90203f70ffa
f8fdf7fbfcfffa00f905faf803030202
fffe00fc0c08030cfde3f40c0613fffd
f304fdfb03ff040cf8f204fff80bfbf2
00feef060909f303fcfefc05020e03fe
000afcfafefcfbfffd00fe0303000605
fe05fcfc0105f9ff04ee0af804fd01fa
02030ef903fafff70100f8fd000efce9
0a0503fbeef003f2fbfbfcfe0f00fdf7
f901fbfafefefbfcfcfbfcfc05010503
01fefbfd0100fc070b0f03fb090cfefe
03ee08f8f9f500f707ff0605fd07fa02
fbf6ffebf2000205f601fafde713fd02
04f8fb01fdf7fbfbfd03fb0206020705
f900fafb06f700fbf0f302fb06030303
0c04fe141505fff40102fffef4fe03e3
fcf707070ce8f808fffff5fbf10101e3
faef02fb00fff9fdfdf9fcfa02fe0200
fffd020207fc11f608fcfef5f1e90406
03f1fff8fc07ff0bfdff121205ff0c16
fdeef8f6fbed0203fcfc010002fdf80d
01fff800fb00010301ff0100030400ff
fdfb02fd0cff0101060bfffa05f50c08
10f8f4f5fff700fbfefc041300ff08fd
02fc04f90e080300fd0207f5070a0ef6
0102fdf802fc01fafe0102fb02030105
fdfdfefa130a0a06fcf411fd00fc0103
f207fc03fcee13f20000100205fbfd09
fefeff0603f7f712ff05fdfd02fc00f3
05fbfe06f905fff8fd02fffa03020303
02f4fb00fb0412f1fb02fdfd01f10308
fc09f1ee06f1fff1f5fdf6fcfc0df611
04fb03ff11f702fafefd04f9fe150cf5
04fffdfcfcfc01f9000202f902040006
fd01fdfbfee5ff070300f5fbf3f81300
fbed00f8010bfffaf508f701f5120109
0002fafd050807fdf7fef7f0fa05f4fc
08f00204f9fe00fdf9fe00f703020203
04f9fdf7f90dff070002050c051af70a
f40313f91307f504f708f6f8faf3ff0f
f404f3fcf6e00cfcfffcfffd00f9fc02
f607f902fcff06fc00fcf9fd01040102
02fdfefe0afc0906f21711fcffd7f20d
eb04fe0503000ffafe050d0006fcef07
fc060efd01ee0802fbfcfbfafd13f202
f5fb06fffaff02fbfcfe03fe07020305
fd03fbfa0d01fe06fd06f8f8fe11f5f8
0408160000fafffbf9170401f402e801
fcf6edfef505fa01ff04fefaf6fbf910
fe0200fffafafdfcfc02fcfd03010303
fcfdfefd08050b05fffbfef901090201
f0f0f408f90604fa0c03f800030ef902
ff2502ff08df0df2fbfffa050dfefe07
020404f6fcfb0002fc00000304030403
fe0afcf901090202ff051505fbf002f8
f5fafa0303fcfcf3fb070c08fc0a0507
f6fd06f1fefaff03fdf3fefafcfdf8f1
f9f6f604fef4fd04fef50402070e0705
f6f2fffffa07fcf4f8f7fced12ff13d7
0100fe0e04f5fd070a00fa00030a02fb
fb01ef08f8f103fbf900f7fff503f80b
faf602fefdfa0501fafefb0305040101
f9f9000001050710fafaf8effcf7e317
fe0df407f9f803e2050eff0c030906f9
07f90ef8fdfc0207fffafcfaf20df60a
f701fa04fb02fffafef8fef901030804
fefefafaf80a030af704fd07fdecf900
f7f0fbfffb00f500f8fb080703f506ff
f400f7ee23f9f8f5fd02f9ffeaf8fe0a
04fafc0909fffafcfffef90601010604
03f9f7fe05fd00fd05eefbfdf8f5fff9
fc02fa16f61ef8f00d0af8e509e80408
01f9f8fd09080806fdfe01fcf604f407
04fef801f7fefbf8fffdfdfb03040105
fefe00f90203fb010dfa06f8ef03fdf2
fefbfffaf603fbf9fefef20afd04fdff
08030cfbfb0cf2f2faf502020bfff8ea
feff00fc00fff6fdfdfbfb0102050204
ff00050000f9130aeef7fffaf8fefe00
f003f90301ffeefef80ffbf7fdfb0df6
f501fc0b19fff302fcfcfcfe040bf81f
02fef40109fb02fd03fdf9fd00050104
fdfefd0001090c12f0f4f7fae3f5f90a
08faf5eef8fafb050002fff6ecfa0305
ff05fdfe0000fefdfbfcfdf3fdf90005
ff06fe09fefbfefdff00fff803020204
fbfffffa02f80cfefdf6f4f6fcf606fb
0112fc00fdfcf8ff02f7ff0602fa1105
f0fb21f4f7fd0b02fcf4fffafffcfdf3
faf6fff105f3000503f3fafe070dfd04
fcf402eff50811fff4f7fef5fcfe0fff
17fee4f601f60e09ef020e10000614f0
0f10fc12f80eff0efc0005f7da00fff6
08fdfd05ff000300ff00ffff04010002
fafefcf8fff6fffff90afbfafdfafa0f
0a0b050df100faf4e7ec0bf2fc0a04f1
f2fff615effbf903fa0102fd05f0ffff
fe01fbfbfbf50200ff01ff0103050004
0003f7ff000bfbfdf0f0f6f303fa1b07
0403f422f0f3ecfafed80706ec12f309
f0faf70d06fa03fa02feff02fcf711f8
07fb07f4fdfc020301fcffff02020300
01fdfcf8110501f6f5f8ef0707fa130f
fbfd18fcfff6eafe030400031006ef01
fdeafb0d04f6f407fdff01fd05f600e1
0300fa07fefdf601fffdfb0402020602
fefc020004f90004f9fc09ffff051004
00ef090503fe04fc00effe0300f806fa
0413fef40bfdfefc00fafaf8f0040800
f4f704fffb01fef9fffd01fb05030403
f8fbfbf9020c0d08faf3fc02fd01fd0d
0407000f02fd01ff13fe07fef91605f8
f1fdef09020e00e0f9fdf7fdec00000d
fcfb02f2fb01fffe0003fbfd03030103
05f7f90109fffa0103fa01fefe00e80e
fd10edefe8effc040802f9fc1cfd030d
10fef4fbf4fbf009feebfcfbe5fdf809
f402fffcfff601fbfcf3fefb02080206
f8f405fb0604eb00000310ffe708f4ff
fbfdfa050f020f02fbf8edfd051211fb
fc0cfbfff420fe07fc02fbfcfe070402
f9ff01fef9f6fc02f9fdfbfb05030301
fafffafb040202fcfafc0c0bff060afa
fcf30bfff8f6fdfb0100f4fb050cfef0
fa03040b0911f11001f703fcf405fe0a
fcf7f9f2fbfc02fe0001fff7ff05feff
03fd00fb0405fa07edfbf1050806fe26
081aec07e302fa0905e9f8f8050e15eb
f916fbf4fe0bfc00f10203f5faf40cf6
f8f504fefdfefcfcfa01fdfb05030204
f9fb05fb01fbfd08fbfdfa03030af3ff
0900fb09f6fffa0804f7ebfe03100708
fa090af9f6e9fb04f9fe0003f30cfb17
fa00fd03fcfdfaf703fd010003030201
00fdfc020e05f5f402f8fb11fd160800
14fd0800f3fdf8f9fe0401eff6faf9f1
eaff08130207fdf303f9fefff30413ff
faf804fbfef9fe03fff8fcf9030801fe
03fbfe030001ff0ff2ff06fef302f222
0bfd0d0600fefe200e00fb00fb01fbef
fd00fd02fdf801fcfc05fcfaf7050501
f9f9fa050404f8fef904fa02ff010501
fcf5fe00ff030309fe04f1ee02f6f9fc
f306000408f1fbef03feff010703fdf5
fce303fafdf002fcfdfdfaf6fd0e04fa
fdfaf9fafa01fcf6fb00fbf70301050a
fdfefdf603fe0206f80002f7fe0205ff
fef0fdfcfbfdfef90009fe0203140406
0c16fd03f5f309fcfef9fe01010006fe
fef90202f8fffd00fbf8fefd06030201
fffbfff7f8ffff020116fdebfa01fd06
fc08080119f50305ea03fa051404f9fc
0dfbfffbf30301f8fefb0007140a15ff
f0fbfdf7fdf80206fafbfc03010805ff
f8f8f3f709fd1efe08fa08f30ef7fdfb
f407f603fa0100ef0df91504fbf0fffb
f80800f00afd0614f0fdfd01fefd02e4
05fefb00f500fcf9f6fcfcfe05020502
fe00fdfffcfdfb05000406e60d090207
fdfa0a060a04000afc0301e904fcfa1d
f2f301fe090900fb06fff4fdf4f00009
f90608f6fbf8fcfafdfaf50102050305
07fff5fe0a0209f2ff0608ff0b0706fa
01faf20707f903fbf4eef6f100050af1
fc03effcfde716040100fef802ff06f5
00f7fdfc03fffcfafefd03f6ff040303
fffb02000801f308fc01ecf6fff200ff
f60400f905f3040405f20200f80f1302
f6fefe0b0307fd0d06fc02fb2605f609
0bfcf406fcf701fefcfcfffd01090302
03f7f803ff020507f502f705020e02f1
01070bfdfe00f0f20102fefafe0302fc
f2fd07f9000110fc00fbffff0a040703
f5fcf4f600faf8fffffafe0001070201
f7f9fcfc01fe0a04f10405f205fdedf4
f40603f6fc00f7f70e04e609f3fdfffd
00f70007f7ff01e2fe0002fdf8040ef8
fd000008fbfdfcfefffd02fa03020500
fdfef8fe0bfc03fbeef703fb01f1fb14
fce60318f5fcf3010205050010f105ed
edeeff0006010204f7faf7fcfcfdfcfd
0c0d010a0b02f7f506030502f406f109
f2f908fafffa01fdfdf7f700ee01050d
03080f00fa0afd180103f807eefcfd08
fd0d0103050108fef1f70005fdfcfcfe
f3fdf61300000d120c0b0304eefe1807
02090ae100fafcfcfafdfa0303f806f7
03fcf70bff0708f0ff01fa02f1050ffd
f20b080e0607fc0409fe020efef8fffa
17f70ff50500020f050afe04ef0ef2f7
13050f0400fafdf8f90806ff0c0201fb
f211fff8060418f6030d01f90901010b
f7eef3fe0203ff070fecf704fdfffff9
14f90c10fdecfc0bfcfffc09f7e105fa
f2021af9fcfffd02fceafd0c09f9fdf6
03f81404020e090f060c00fb02110d02
f9f205ff04fe08060105f706fdfdfbfa
04f9030800fded020402030c090602fa
09f813fbfcfdfef7fd0df9fa09fd0311
fdfcf8fa0312010201f5000afc110a08
f9fc020a010202030efdfa02fafefafc
f2f805fc0001fc050303fe00f8f500f6
110a01f7fc01fefdfffefefb16fd04f9
0101fc0600f90201f40103020a13f705
f6fdff0709ff06010f020208fc00fafc
fb0203fffff2030205fb0505030605e9
f40204effffbf9faf2fffbf70cee010b
01f6ff01fd0d0103fffd03fffcf8ff0e
0808e80cfff901ff060ef805fd00fffd
fefaf4fb0f070e0203fd00020000ef07
01fdf71afbfff9fdff05fe0200ff06f1
030fff05f60afd00fdfb11fefce0fa1c
0101fef50004020409fc060800fffdff
040c01fe07000502fafc07fefdf608f7
060bf90efffaf703fcfa0404f70a02f6
0af8fcfef01cfafe030efe090c0ff8f6
0f080314050302fafa06ff05fefbfe00
fa06ff081901f600020902f2040314fd
fe0a07fffe0100fffdf708fbf10310fb
f40f010a0709e50e07f402fe19ff0cf8
f30e11fe040504050afa0200fff9ffff
fefcf3fd03010904050cfd02fa09fb14
0406f506fcfdfdfef405fbf6fefd08ed
f60b060df9fdf5fbfc070bfd0a06fc09
06fefd000205ff06fcfa1303fefe00f9
fd2408fd0d21d50601fdfd0502ec0cf6
091916f9fff5fefb03f801fb120deff3
0eedf00bf4fe0efffd020000faf3ec08
eefd01010900000007fb03f8fdfeffff
fafc0b06fc1612f906fefbf6fb140e06
f7fc1000f9fefa0302fa0306ff1302f7
02150506f70af3fa08ff07f6000a0ef9
fae907fc02040002010e010700fcfffe
f9110cfe0208f1f8f8ff0201fbf904f6
06ede60200ff0301f70703feff170209
0cef1c0c1402f8fffdfbff0508ed22f5
1308e40007040305f70a0205fcfcfffb
fc04f902ef1bf801fe07fc05fb13fa05
0a041bfffefe02f8f70801ff06f405f3
02fa0b00040c06fcfe0102fff9fb0704
fefb080802010607060100f4fd00fffd
f9fcf7f10b0bf5f4fefe0003f30b0105
f9ed0601fdfffe04ff06fd00faf816fa
06fc050500030d06051309030bf4fd09
01030109040308050a0e09fefdfdfefa
ff1d08fafef704f80405ff0806160605
081217fff9f7fdfb0008fb0702e90802
f9f9f00904fe060301fd0c0e05ee1f01
f204fef2070c05010f0703fbfaf2fefc
08fc120cfa01eef60508ff0112fcfded
04fafa18f8f4fb03f8f6fe030dfbf202
f90b0509f5ffee0f0607fffb000602fa
fbf8faf604fe020203fc1513fbfefdfd
faf5fc0d06fae2ef04fb0405fe01fdf1
00f107f3fefbfffffdfdfb0afdfe0df3
08f90deffffef2f90110f90c0107ebf8
080e0a000103090a08090e04fefef9fa
10f70bedfff60c08fc01060bff0bfc0d
fd021007fcfcffff04ff02fa070d0900
fa001104f60b04fa0afdfef8020ef705
051800ea08ff0801fef002f9fefdfafd
0cf80001e2250a18010304ffed02f5db
0b0df6f8ff05fcfa0303f904fe0cf903
f10e00f7db21f9f7040a090a17f90706
fefffe00020502030dfcfa09fffc00f9
020cf8f50403fc12f906ff01f70714fc
fdf8f7eaf9f9fcfbf9fcfdff01f607f4
01fef50d07fdf803ff0e0202ffff0f08
06010a0104020303050207f3fbfc00ff
f7f8f5060a00fb01040101fbf1fbfc0d
11fc0007fcf9fdfefffd04f8f6fe0bf1
fd06060300fef100fd0204010c08fef7
0309041a010400040f0300f3fafbfc00
0af4100e1d03ff0603ff010004f8fbfd
0201f50c05fe00fc1600fbf5eefc01f7
0106f7faf3fb02eb02fdfc02e80204f8
fd0efffa02fc040503100605fe00fffd
000001f90210060502fc08050103fa04
fe03f303fdfdfb01fffefaf8fff5f506
031e0e03fbfd01f000fd05fa00080c0c
060016fd080cfb0af7061711fbf3fefc
12010ce7f5ffe6f30809fc02fefcfd11
f4f90af3fff5f907fcf5fff2eafaeff9
f80af21a04fdef0804091506f907e204
fdf9030508ff01060a07fc05fcfefffc
e402fe0714fb00fc090505ff070b06f2
f61000e3fefc04030109fa02120cffee
fe01f80e07fb030d0400fcf7f4f30a15
f6e70af603020101faf8fcf8fd00fdfc
0ef20914f1f8030aff0203080f0102ff
05f1ffebfafdfefefff5fdfefa1516f2
05fe0cfe17f5fdff05ff0ff60004f6f4
fb0609ff020207ffff00f514fffcfdff
0402f3f7fc0404ff02020d0109f606f1
f1f4fa03fdfe05ff04fdf9fb09faeb00
010608fe1104f4ee0d03f700ff09f8f2
00fb0fea0301060708080804fefffdfe
010100fd08f5f7f9040106020507f30b
ff04f21bfdf8fefa01fffdfd0708f906
fc070cf2ff100108ff06f9f2000ff5ff
040103ed06030301fdf10703fdfc0100
090402eb0efe090a0004fdf5fbf8ff09
0009070b0104fefdf801f2f714f9000d
0e0205f5fdfffa0009020509e4f40403
07090e02fd01020afdf4050101fcfdfc
0103f8e3fb0201faf701fe04f8010801
0efd0b10f7fcfe01f5fbf302fbfc0bf1
010b05f20005fa2406fe02fcfafd06ec
0dfc18fc0005040607000704fbfafffc
da07f8021607ecff04fc0205f7081009
f7fc0b0601fcf8fa00fefafb06f4060e
0204f9f912f9f702fffdee07ff0115fc
06040f0906ff06ff0203ea0df900fdfd
000001f902f7fc0605fe05fefbfa0905
fe10fc05fcf900fefaf3f801fbe8fa01
0a07fd0efd1b06fa090c0a0608f41308
0413fe06f906fefe0ae8faf700fcfefc
fa1112f5f8f40017f8030402f1fdfaf3
0b08f0fef900fa0207f9070af5f807ef
fff00000fd02fc1afd161207f90bfd14
0d0906fffa0103010207f90500fefa00
08f3f501fd1802fef2010ef4fffbfbfc
fe1809fafd01fdfffbfb0905faf610f9
04fcfbfd05ff04fd000af90c04fef709
e90409ed030700020af602f7ff00fe03
0008f7ee0bf806080101ff0011060018
e60a06eb0101fef803f601ef07f709fa
0cee00fb061af7090100fefd0c0201fc
07ff0d120407faf8050505fafdf9fafc
ea07f90afffe0f0608060b010703fe04
0500ec04fef6fafbfef80c10f602ef09
fc010606e901000b0107fe051801ed18
050e070a0303070005fdfb04fbfafa00
02fb050ff000040806070500f709fffa
effffb03fdfbfcfd0508fbf70804f205
fa0d080df907f8f9f60a030309ff04fd
0108fb020401050901110606fcfcfbf6
001600000201000302000507fe0600f9
f8f506fbfefff9f7fe03f8f9faea01f8
0813010901fdfd0107fe040505f50105
f7f9f60604010204f0fefbf6fcfafdff
1ff709f011fbfc0008050206f4f40e00
ef0c01effc01fe09fcfbfffd0b000815
0804f6010ff204f907f60200000bfb03
ec0c0302ff090704f8f8f3ff01f9fdfb
000401f803020506fd00070bf70a060a
f0fdf4fdfffb04fefaf9f1fe05ff090e
f3fb0af30ef9f1f90d09020a13f7020b
f5f503fc030301fb0106fbf6fffefa00
f0faff180402f301fa04fdfefefe0613
fd030509fcfffef9fbfe01f5f4020f04
fcf8fb05fafd0913fe010003030af609
090bf6f603050706fc0af901f9f9fbfe
00010500051202f70b0903fffdfd0700
04fffc09fafd03ff090403faedff00fa
070d03ff0111f604fdeff400f8fbfcfb
fe02f9f8fd050601fcf9fd06fffbfeff
fdf01b040a08f907000806fddb12fbfb
fafb0101ff00fc00fefefcf5fa0fe8f8
08eeecf9ff1efdf710ff05fb0904050a
01f70606010a00020af7fafb00f8faff
13100801f7fd06f204050106000f01f7
fefefdfefefafdf500f902fc130105fa
f6fafce7e0fdfe0cf70e0302f8f60600
0cfefb0eff04fe01fefbe818fdf8feff
07ffed051ff808fffc0001fc0e09fe01
0702e3f9fffd00ff00fffefafc0de910
0ffeff08ef07f0fd1305000c07fb110c
01000a05030008fe0415020afdfdf8fd
fffff3100a0c00f905fe0c0bef070910
e70405e9fdf9f9fcfd030201f1f40408
10fa11fc00f3050f020806fe0a0802f7
0003ff05eff9fbfbf100fcf3f503fcfd
0708fafb05f3f1fbf8f002f70aec0100
07fc0404ebf8f40d0502040aff05fe06
17f206fbfffcfe0118f1f6f90d060306
03090602130910f8010407ff05ff0112
f1f5190a02faea12faff11fb050bf1fa
fe02020117fd0af6020bf9f901060402
0007f909110714040d0dfdfafc060d08
00040506fafcf1092408070d1b040f04
fd0afd05f6030b0409000f01010300fe
01000afaf306fc02120200ee03ff0602
eb090c04f8020c041808f10c0bf32905
020005ffed2b0e0b0615ff00eeeee604
06f907050e16fcf803e8fcfefafef3f9
fdf10406fef302f3040711fe01fe04fc
08000e1102f70200080bf9f205f7fb08
0206050601f205f3feff1601fb09f9fb
f40d05f9ff0702f208fa07fdf9f7fb06
08060501f509021b0303110a01030202
fbf8f50204f507fcfd0e1506fcf406e5
06010604ed05fffefff905f907060108
f11afe0a04e702ff020702f50311fa12
0306fbfe0800fe0aff07fd02ff030705
0707fc0701fffc040d10fe000400f907
02050703fd03030b10fdff0718fafe02
1406ff11feeafdec07060107fbfdfff6
04010402f801fc010bfe030403000500
05f3fdfff90704fa1ff701110300fafd
03020602f8f51007f8ecf8070400f902
0908050801f40bed0308fc13faf3f9f8
0208fe0bff0902ef060f05fb01040c03
01eaea0100fc08fdfc0d0bfd090d1403
03030600ff06fc0af7e6fef4fd04ff02
03fa0804fb06f8090605fb0a0404fc10
010ffbf7031c02f60dff06f20402ff00
fe12f40302fd050f040a0002fe09fc0d
020102030a03fe0601fd0a09fe05f009
0512160bf006f401fff9f9fd10f72009
fef7fd0716f9f5fb0402f5fd0204fcfe
ff13f4fc04000309ef0801fef6f805fa
0303030100fb02f4f1fff4f6fe0cf3ef
fdfa07f8fbfdf514fbff03fa010bff06
03fefefc02fcf60a0a09fff50b000309
f90efd02ff03020d050602fc0cf30e03
02060207ff1bee02fc1df8f603e508fd
0012fa09e9e7e9fbf6e2f2f20305120d
040cfe04f51dfe0efa12ed04ff000207
03fc06090bfc0405ffee0402fd08fc0b
060505fefe11fefffc0afefff208fb04
fafae704030d0309fe01f5fdfd070a0c
0601fd07fe010105fb0d0e0008fe04f8
f6f2f7f4060213070202f90203010301
030201ff2e1be50116d3120107f803fb
f70a0bf211f9ff04eaee01fcfe1508fe
fe15f603f3f7fb0509ebf50502fe0204
011bed0efc030efeed0a0502fce91efb
05030307fbfb1901edfb0200fd0c10fb
efe11900f607fa05f81bf202f7f40cfc
0616fa06fc15f903fdfc050102fffb06
f90cf3fe08fe040502fcd405fd18fefe
0400040005f203fafdf8f5050801f800
1011f203010200e7e9fdf30d1d000df1
02010410140c0c04fd0606fc070307fe
0e020000fefe06ff00f9f9fc10070308
0505030501e90efd06f9fc0802f52505
fc04f8030a0300010715f801f71809ff
08090301f5ea040401f6f00504040300
f8ef0e0a070206020a16f8fff20f08f7
070e0404fcfb19f7fef8eef70afdebef
070602fc09fb09fe14f8e100f609001b
fb0b0702030a040f0007fbf9050cfafb
fe0a04f5fe09f2fef60107fcfc07e0f9
0408020100002a11010613fbfd14fcf8
020312f1faf7ef00f609fbf805061009
060cfa080302f60701051402050805fe
060612f700010af6fdf40cf10d020801
02050100ea01f50df0f000fdfb0c01fe
0ef413100217f7020ceeecfcf015f8fe
08090701f609f4f5f8fafa050106fe02
18fafb04030efefced0a0505e902f50c
03ff0506f30105f826eafdf10be600f6
030707f6cf25fa22d40afdf4ff000b19
ff0206fd05f902dbf1160201fffc0701
ef010dfd08fa06f7dffbfff8f00b0519
04040307fa01fdfe1100030903fa050c
ff07030400f9030c070504f60400fd0d
040203f906fb0a100707fd0006050209
06f8fb1505010607fdfa0d110bfa0dff
04070303f600f9000804eaec0bf7fcf5
fdfd11fb06ff05ff17fff6fb0b111308
ff08190300000512f8f9feefff0207fe
05f8fc01080002f608fe0311fbfc0401
04050202f00bf8d5ee0904fbfcf70613
f5f7fafbeb07fbfaebf602fb1100fe12
0701ff031b0403f803fb0efbfb030106
fb0512ff03000807010cf804020a06fa
03040100000afc05fef9f3fafa04fef5
01f60afffdf2f70a00f2f7fe02040404
03030bfb08fd10fb030208f7020aff04
ff0009fa03040a0700ff011200f40bff
030c02fc0cfef009fffafb06efffe906
1203f600fdfefc0004f90111070a04f9
050bfd00f908050e03080dfcf90d0bf8
ed0a1502fa0bf602ea040ff50b040f06
0404fefd001303fcf8faf708fb0b05f3
12ecfaf00203fbfeeae800fe00100403
040bfffe0103f9010cf9070d060100f9
eaf905130100fe00f003ffefef00feec
06030001e40c03f0ea040604ff10faf7
0312ff02f51200faf9ed0203f8f302ee
fdf903fff40208f7df01fd01000500fb
0ff4f00110000dfef5070df310f803f8
040300fdf8fcec06f9fcfc03f904ff11
0b0c05f2fef8250ef8f5fafb050f0609
0300f4f8070d02f709030cf2050500fd
fc0aff18f7010e04f704fcfd08070b12
03070305fd010a15fefc0113fc1a1210
f014070004fc0ff903f10bf4fd0bf41b
06091603fef8f7ef0803f901020803fe
f7f2fc0506fcfa0401faf2f5fc030009
000101060ef2fff9fceefdfff3ff0903
f311fefb16f301f300fef409fc030105
000afb02f0ea030b00030c06ff000405
0bf8f01011fcff00f00300f5080708f9
0602fe0201fd08000009060601f8f101
0a11fcf01108fcfb10f501e3eb00ecf2
fff5f7130bff0f01f50c080a07fc02fc
fb080a0c090802f9fe0f00e50bfb0ef9
01040605f8fbfdff0dfffc080500f604
090205fa2108ee030201eb0bf908eef3
070afc09060703ef06010402fc010105
fbfc06f6fe081705fffff901e102f7f6
05030202fbf50401ff1af5fc0107fc1b
09ef0ceefa0bec00f51410030a0bff01
06010b0808fdfbf906060aef060e0602
0afcef0805f5fcff0407f3f90510ed0c
08030302060defe50301f9f61508020c
060106f00afcfde8f412f603f3edf1fa
06fdfb05fefc08ecfcf7fd0606ff0700
09040e0f080c0efff5eff010fe1103f2
04fe0505000501fc0503fafe000cf908
01030304020210f6ff0701050e040100
04fc000900fd0802ff00ed06fefe0302
fef810fa0afc09000201fff1fdeafdfd
020102020ef3fdfe1a04f7f70106fb1a
ee00000bfa0604f6fae1fa09fafafcf2
010506fae9fa0811fc00faf9ff02fe06
08fa10fcfe090504fff70afc0a06fc08
07080405fb0003fdf8ffe007f4040c09
f9fc0c08fb030ad9f801fee1fdfef9fb
060506fd02fd12f1f905070306070503
0bfb0400fa070108060215ffebfe08ff
02040501f3fff9fe0610fd020e0c0003
02fb05fa0102fb000503fbf7fa06fe04
03fd05fffcfdfe121107020cfefe0305
ff0d04fa080309070c04020206f40602
0302050af9f9fefe00f3fefafffb03ff
07f4fe05fcecfffef5f807f607ea000c
05fb060906f3fc0905fe040704ff030a
0809fe0405050508020b03020607fc06
020203fd0304ffedfc05fef00804fe0b
0204f80205f80108fc0c0f05f806f20a
0105ff0503f7f5edf500020406010501
0704f5f70cfffb0b110dfd08eff5f5f2
ff08fe02fc080df8f40a04090af60803
f6f706f9f8fc08f6e40f0a02fff814fc
09fefefcedf10d08fffc071102090300
f4f6e613fd01fffdfef7f4f8e5fa12fc
050107050301fc08f7050306f8040412
0bfaf7fb02fc0501ff09020c06fef6fd
0a03fcf9fef6fcfd0100feff0300060c
f101fa0907fbfafa0505ff130afafa04
0802fc0309fffd020206fe06ef060afa
fc0903f1fffd0bf8030afcf709050706
06090406fffc09fb00f203ff03fdfbfd
0502fe0b02ff05fd1100fafe02edff06
fe00030300fbf0011c0703f4fdfc0e02
faf7fcf8f5f9fcfaf70404000200e805
f609ff081af406fc0701020400fd0207
010d0200fe01000307ebf6fdf30cea0a
03090505f1fbfc01030504f1f6fa0414
ff06f60502fbfc03c514090e0df10603
fe000004e8f6fd15f80300040a0a0006
08f30fec02fd060ee3eff4ee0a00f718
0008010114fd08fdf206f202ff0215fb
f70007090a0309f8f904fb0506f9fcef
05fe050306fc07ecf9fff8010009fe05
03f80d0bf8fc00fa04ff09f10ef9f4fb
03060501fe0705faf90e07e9f8060008
12060b0cff19070be7fffd1e160b01fe
04f6ff0b1c0a040706f900fb02080304
19070817060f0009010b06221208f91e
150c11fdfff7fa000906f710fffefefc
fc0702eef8effffc07f3030303050303
1a0afc0306fef602e501fbf6fbf00100
04ffff031dfa07f0f7f7ea0d1c07f404
f9f00b07f2f900f2f900fef8fafafcfe
0e08f40e11fc00f6fdf603e804060203
0c07fb0bfcfa00fa00070ef7ff02fcf3
0008040607f8f7f403f8ff06f9fd02f9
00090300040505fedcfae7fafef9fcfa
f7030903090c1c040ef9080501080206
e0f7010b020504fd04fcf10bf4f6f8f7
fafe0606e7f3fa00fdfff41205080307
0e140601020406fcff0cfaf3fffffdfb
fd1bfa0700eafefffe111f0c02000305
f9fd04fb020001ff11eff30809f00400
01fc040afbfafde4fbfafe040b1df10f
f803ff04ff0cfafa0d090e04fdfefafb
04fb0706fcf80d040207fefa04010506
00140201fb00fefff80d0304fd03fdfe
ff0b0402fefa1109f8f9fe02020001f6
fffaf90cfc07fdfafcf203f5fafffbfd
0501fdf5fb06fe010e0b06fe06ff0503
f3f502fdf4f902fe050cfb06030afefe
05040805071400fbf2effc0c07fdfffb
0207fc0f04fbfcfe0409ff05fffef9fe
eafb020cee1700f9f2fc02e502040704
f6e802ff07f8fbf3f40bfddf00fafcf8
fb04040507f401fefc08fff40e0300fa
040a0b14fb020000f513f5f8fdfefdfd
050ffdea0b0d03f90102edf202030203
07010005fffb01fd03f6f5feff0003f8
0300ff0203fcfafe06fbfcfbfdedfe08
02f902fff705fef7faf3fef2fe00fafe
06040602faf7fdfefdf9070003010401
03fefc14050afe0008e6fefcf500f8fe
02fe000808fa00fdfdf5000dfff3f40b
fbe9f4f7ff00ea04e90708fffefefc01
fc0707fef9fff6fb0af6f70801010303
fdeef60508fe01f004fa06fdf803fafa
03040705fc0ef70102060200fbf80601
fff8f1f4f00103f903ff00f4fdfafffe
fefcf9ff000b070f0001f30901060300
02ff0af0ff03070104fdfefffef6f6f7
0400fefe09f1fb040b0313fbf60cf80d
f0fd0f14fd05f9fbfc1618edfeff00f9
f406fafafe0d04020008f9f903010206
0104f0f9fd0500fb14fe070801fa00fb
0602020806fef2fffce6140a0f0f10fb
0a03010400fbfe08fef804fafafdfc01
fdf5050101fafa05fee7f10c03050401
f40c06fe0601fff20203fbf6fff9f5f1
fe010207fe02fdf9ff06000c0004fe04
06fde704fbfcf404f2fd01fdfe00fafe
f6e60c05fef8ef0613f80e1002010300
1104ea08fdf9ff00eee2f4faf607fcfb
03060303ef000402e0f3f70bfd080cf2
0afde905fa0304fffbfef603fcfdfffb
ee0ff4fb0ae9ea0502fd0a0205030306
fa01ea0104fffd0202ec2a03ff02f6fb
ff040503fe16f20511070c09f6fefdfe
11f5f601f9fcfeffed100b00fd00fdff
f8fffb0304ef0104f0f106f503010201
fd0dfa0a0003080004edf70bfdf502ff
0804fc08fef3f30e0e0a1303f70104f1
f0fcfd010201f7031307e5fcfbfefdf9
04fffb0100f4e70702fe070404040307
02e701fefc0a0b05ff130a03fe0301fd
02f800ffffdf0df7001afaf906ee0f08
fa08e7f7faf6f20510f7f5f4f9f300fc
e4faea0f11fef2e00dfe0402080d0403
02fef9eafff808fd0c0725f3f8f203ef
000cfd0c04fdfa0efc0709f805fb1401
08f702fcfef81004f804f7f6fbfdfe00
fef00b06000bf30c040b060704050102
fe0626eefaf808fd00041000fe00ff01
0609fb07fefef7f2040007fdfd09e106
02f4f21305fffe020efefdf6fffcfcfc
f5fe01fefff4f501130004f900030503
0807f2f6060207f80a0bfaf50608ff01
0201f90308f609f306071305f2fcfa08
fdf9fef9f6fcf805fce5f512fbfffbff
1104f60308fffb0c07fefd0d03020502
fd0bf5d702f5fef7fb02060dfaf6f701
0606070701010111f8ef07fd11fbfe18
03fa060cf702f4fd0405fafdfefcfdf9
f6020afc06fffb0801fd060203040206
fb0af90202fe010300f7fa0ff2fcfff8
0502010bfefcfe0302010007fbfef7fc
080618110307f801f805f400fcfcfeff
0300f8fe02fa0af008f9040d04040002
04040ffcfef703071303f4fbfb0008f8
0503fefd0e01fa1002fb1502f8f3fb00
ef10f5fd0bfe00fff4f90319fbfbff00
e8f0f3e9ed05fafe1106040104040102
edff00f3f704f706ea0d11f5f3fb0401
0f040bf90c0a04eadb0efdf000fc02ff
04f30d00fffcfdfffa18f007fdfdfefd
fe07f31200f7fbfc0201fbf403030201
fff9fef5fe02f8f404f405f1fbf3faf9
01fefd0302fff80101fa0604fef7fff5
100a060100f40efbebf815fdfcf300fe
fbfcf604f2ff2c00ff000cfd040c0102
fefc0c0efcf6fbfe0406eefef5f5faf1
fc0d020205fe0305f008f4f9fcfff8e9
eef8f5f9f6f8f806f70b070cfefc0001
e507fefcf6e80416f7f40b0d0203ff01
02fe04effcf8fa00eff8ffed0305ffec
010705051505f80d05ec090127fc00fd
0df708120af801fbf1f618fefcfffdfe
261afcfc0dfcfdf3000f07fc04ff0304
12f40c01fd04fcf7edff18fdf806f8f4
07fcfb0206f61002f50e01f4f514ff02
f211e9fb03fb05f50bf406fdfffdfeff
faf91819ee0203fcf2fe05f201020102
06fff3f909fef9f6f90b2d01f7ff02fa
01070101ebfafcfa100a04f804f8faff
f5f7fb05fe06f5020c03040cfefdfdff
06fdfaf9fe080c0e06f612fb03030403
fdf9030f00fcfc08fdff1604f9030bf7
ff00fb04fb09fe0104f90df305ff0707
f60c010aed03fb05fb06fc05fefe01ff
0afc00fe07f1050ef4fef2fb04020102
040a06fe020301f8fe11fb06f500f403
fe04fb06030305f20cee06ff0603fdf5
fa01120f060107fc0812060600fffffe
f5e4f3040d12eefefffaf5f601040102
0802f41902f4f6fa03fd00e907f8f60a
f80303070409021e02f8ea03fafd0701
fa0903ed0302f6fc0bf70714fcfcfafb
19fc0505f309e9fdf102ee0a03060305
05050606faeffef90dff18fdf7f0fefd
060cfd0310fefcff010e01faf6ff0a07
0b08fdfdf7f80302f7e8f4f9fa00ffff
fcf6f1f7fffc0afdfbfe0cf805030003
fdf3f305f904fdfb0702070ff9f70203
09fc0201fe020a030516f3f4f9f0ef0b
f302effa07070407f9ff09eefefdfdfd
f803f708fff606f2ed08060003030103
0de1f6e9ff0101f8fef60feefeff0208
0a00000bf6fe0cfc05fe07190000f5f8
f613000107f20201fd01eefa0101f9fe
02e90702f9ec02f707f9f90903010303
0909f506effff602fb0df0fbfb0709f7
07000705fe17fef7021f01fb0225f901
f701021a06fcf9f9e8fcf60000fffdff
120508f5fd0e02f6fc00ff1302010201
0df4010a00fafffde8f708f402fdf900
06ff05f621f105ea12f80400f7faf5e7
f9fb080df7fb08f907081b14faf8fcfb
1203f8faf5fdebf0fd01090104080506
fc02f8fbfdf6f5eeffff1cf406fc0503
09060605f5fe050cfdfefd1afa02011b
02fc110e0006f902fe03f902fafbfb01
fbfef2eef60b02fb0cf8fbe302070501
fa01fef9ff03fbfd01ff070af6f7f7fa
060006fd00f4010503f90cfbfd0b03f8
0ceefb0afa02fdf8faf402f6fdfcfbf6
f8f805fcfff70001fd1104ff0304050a
fff502fbfcf8f5f90514fe05faf200f6
07030209fa0404fe09f0f807fd030200
fa10f5f7edfd01f7f1f312e9fbfcfeff
fc0200f205fdfa070d0f0102040302ff
09f6090904f001fefa0af7f80109fff5
fc0a04000c12ff06fce5fdfd0ef604f9
04faff02fffdeb03f00b010701f9fffd
13f8efef0f0bf20b0101e8f300070303
effcf90cfa05fffaf2fd070d0bf8f6ff
00060406fcfd12f7ff06fcfb1a0312f9
0cf7f910fd020001f60b0feafdfffafe
f904fff3f405fefffe0c090602010601
fb0008fcf1fa0405f905f811f706fff3
090107fbfc05fcff04f9f9fbf8fe03eb
010e0cf4f6fe05fcf705fdf0f7fbfeff
040cfffbf6030b0e0600030408050103
fdfafaf5fdf3f3fefff7f90afdf7f105
09070902f1f3f90403040e11fafdfd06
0b03050200fbfaf610f7fd01fefffeff
140506feeef4fcfa1bfbfe0c01010201
e5fe0206faf802f6e504e806f605f8ff
fe060509000af9051114f408071008f8
eee9fb07f4f7fb06df050ef6fdf8fbfe
0600fb0426fb020e0a0104ed00090602
ef080ffcf603f90006f406f105f0f804
06060cfefeff02f6f1fe020826090003
0bf904ff01fefd03070cfe0bfdf9ff00
efff19fc02fdf0f5130808ff03070101
f105eefdfb00f90600fd0708f0fe0405
030b09fd0a02fe0ce5fadff7dafeef07
18ec0d0cfa01020ae40cfeeafefbf9ff
f115ffff04130d0cf108f0fa02040700
f7fff112feff05ff0b04f2f8fa01f802
0305fdfcff02f80a1008fe0af710090f
fd04f80af723f500fcfbfbfd0810fb03
fd02f9f6fa00fbfefbfcfcfffdfd0503
01fffdffe9030c01fff4f308f00903f9
e800fa09f20df9ff0f08fe0e060c0900
1b00f8fe03fdfb20fb02fbfd04f9f5f8
00fdfd06f902fa03f6fffa0001040403
f9fafafd09f40af8fffcfb0403f602ec
eb020108f8ebf7fb09f701f2e0f20d06
0bfe10fdf909f002fafffa02ff0108ee
f801f4fd010106fd00fffc0102020203
00fefb05060efa0efdfbfef6171511f0
0a0f0a0dfc0602f6fffb03fe14080cf9
0003fe07fe06fb11fcfbfefbf7fa0df9
f3f700f9fa03ff03fefdfafd02050005
02ff04fbfa1105f102061a0b0915fd05
ea0ffffd0002fa0f05fa050a030e03e3
0afb09f602fffb09fbfe020616fc0a06
0700fd05fafef9faf8ff00fa01010002
ff0103030e08f707f8f507fdfb02040a
f9fb01f611fb00fa100006f3f10c0dfb
070100f60604fafff9fffbfc0902f602
0cfd05f7fff9fd0102fafffc04070203
fc01fbfef9f8fb08f500f601ff02fb07
11fdeff6f10afe0508fdf1010507fbfe
030210f901000400ffffffff03f0f51a
fcfafc01fd01fbfcfcfbfefc03010004
fff8ff05fefafd1e0313f507030e07e8
feff08080001f103fc070affff0afffd
fbfe0cf005fc07ff03fe00fb10f00005
fef707fa02fe0004fdf8fdf903020404
fffffffe0a06f203fdeff1feecfbf912
01fb08f817f7040a0dfbf30204fc0609
e1fb0af7f5f506f9fffef9fe090409f9
000bfbf5fdfd020500fefcf6060206ff
fe07f9fcee0217f80514fc060efe08ff
130610f8ebfc05fa0c13f7ff0c120cfd
fc08fceff4e408f0fe00fcffe9040716
fbfb00fcfd00fdf6fbfcfc0303fe0402
f8fffc020112ff0105f1fefbf3020304
f301fff8fa1305ea05f8fcffff0500ee
fdfa00f807f2fcf9fffcfdfffe00fdfe
fdfdfbfbfafbf9fa01faf90006020403
fc04fdfbfe000303faf6fcf6020201fb
0916fbf6fffef9f9feea0401fcfbffff
fffe1c070ffe1d01f8fefe0001f60410
fb0a0c00f9faff08f8feff01080300ff
f902fdfffd0cfb0b020508fefefcfff6
0807f90600faf0fbfbf6fb0ff908fafd
01fe09fd1002fa01fafdfdfaf7fffe00
0401fafefefdfffcfdfffcfd03020305
fa00fcfa0804fc0402150efc030808fd
14fefa00f7e901ff0eefff04eeeff604
01f6110304f90909fdfffd00fbfa03fc
f5f60108fffafcfafa00fff903050402
f6feff03fe06fb10fe08f809030e0608
170bfeedfdf1ff03f7f401f70eff08f7
fbfe08f4fcfcda0dfaf402fef8fb0301
fef80104f7f404fafaf504fe060d0203
faf201fc0505030bf6f90102f50201fa
f3fd0bf4f7f701ff01040702000af9f6
01030803050402fdfbfbf7020908fdfd
fe00fe01fbfdf8fbfafcfefc06040701
fbfdfb07fdffee020202fafb020200fa
00ff08f40003020d02f903f3f8ff10f8
07f6fc00f704fdfdfff600ff03f2fef4
0300fcf7f9ff00fd01fbfe01ff020001
0302fcff0e02fefefdf709f80803040c
0efd01e3001001fe01f80f00fb07fbea
fafdfbfa05fef9fafe00f8fcfff30efc
f801f3fe00fd02f9fd01fcfa03010205
fefdfdfcfd00fc0708f2eaf9fdfe0702
f8fe01f902f607fb09f503fbfaec1805
ff1c0103eeff13f500fb00fd14f50f13
faf5fafffbf80100fafafffa000400ff
fcfbfb0501fdfe0808efe8fd0601fbf7
df01f8fbfa08ecfffcf9111507f7f10d
f4f3ff15f50bf4f4fefff8fdfcfdfb04
f502f7fb00f9f8030200f9fe01020202
030102fb08fa040909ec0508faf50e09
ff05f6fdf4fc08fdfc01edf8fafaf811
de0afcf8e604060102f4fdf5e50300ff
0605fdfffdfdfbfb02f7fdfbff040202
01f301060209faf9f7fd0efaf806f400
f9f2ec0303faf40f0df914030b09faf8
11fd0309ee0907f9fefdfcf814121007
ed06fdfcfcfafdf8fcfafcf804010503
f600fdfe06090000fcf5fcf604f0fd14
f0fafd110eff060ef801fbfcea0cf80b
e707ef05f90efffdfafe01fe00020203
f5ffff0108fcfffefbfef50103ff0004
fa00fff9f90109fbf3f308f6f3f9fefd
0609f3fa11f20907070e02f7020e0f08
11ef09ec05fdfb0302fdfe02041ffdf6
03f80afdfef9fd00ff0200fefe030203
fefd0003fef9010ee8f607effafb0c03
f9fb00fdfafd08070c090410000afc1b
0ef1fefb080af3f9f90101fc09f60305
030008fff6f9fafaf9ff03f605030104
03fafdfef6f503f8f9f5020708fe0af1
f604fffe0400f80af801fcfffcfbfd03
f003f8eff8080414fa060001fcfe0b1c
fdfc0203fdfef901fefe02fc01010102
06fd0400021403fe0403ea060103eef4
f603fdfdf3edfcfbf3f401eef901ef15
fcfbf81002fd0bf2faf6f4fc110b05fa
ff06fefefaff0001fefefefb08040101
fafd00fb1cf40603f800f20f07f20601
01060f0000efe9f20203ff030a13fa0e
fafd0300f511f2fff7fff5f902f5f60e
f0020004fc02fef9fffa01ff04000405
f90203fa0a0efaf4fefd050502000208
05070302f6fe0206090a04070a090302
03f801fcfcf20214fefafbfbfbfcfdfa
fdf7fb00faf9fdfcfbf6fefc03080506
fdf8fafffe0702f3fdfc0015fe01fcef
fcf4fff6fafcfffdfefd02ef0305000d
1a030600120202f301f90800fe01fa0e
e4f7fd0101f9fbf3fef8fb03ff080304
f6fa03fff20203fdef01fef51003fa00
0201f00109ff000becfff5f91601f801
f9f802f901f4fe030401fe0106020afc
f805fefa01fffd02fefefdfe00020301
fcfbfeff080d0308f7fefcf8f516f2f0
f9f802eff1fdfc0402effcfa09fbfbfd
01fe0009070606fdfb00fef7040407f6
0003fffefd0101fffcfefffb04ff0303
fc00f8fdffeeff0605fb000002f70e00
fff7f2020504fb03fcebf00ffd020c0b
07f70304fbfe0df2f9fcfc0008fbef08
00fffafbf8fcfdfefdfdfdfd06030104
fafffcfdfb0feef206f6f40301060ef7
06fd0103f7f7f8ec02f8f0f8f811fc15
0b0519faf1f20df401f7000402f90208
fa05f3f9fdfff907fcfbff0102030000
faf9f8f80605faf21a09fef8e70bfff7
f1fd040706041708f7f7e60b1309f003
010cf60efa111cf0fb0001fafeeff3f8
fbf7fffff9fafe01fafefdfe05040002
fcfffafc060ff8fffa09f4fb010412fe
fef3edfbf6fcf6ff01eef21002fb01f7
17edffff0ffd050efd01f9fdfdf302f8
01f5f9fff7fff8fcfffef7fd01030805
fefdf7f805f3ff12070504ff0cf200fd
fdf6ff07faff02f0ed030600f503fe07
0df3e804f7f407fefc0000010803f301
f9fefe06fdfbf8fefb03fffe04010202
f60003fef7fdf9090805fefb0306f907
fc01ffed0302fdf800f31101f4eff71b
fbf6fbfb0cfd0306fe020502effef510
f70ffcf8fffcfffcfe06020505010005
fcfd05f7fdeffcfd10fdfef6fef10000
0efcfd070dfef9f20204010a030d06ef
f7fefa050407dbfbfd04fefff918eefb
f9f9fc0100fc0100fbfcfdfd03000205
fe00feff08fdfd0810fff92303ebf606
f6f4ff02ff0511fc13f2fd0d1219160b
fae8fef9f60707f500fd0005fd05f501
f8fdfdf1ffff0704fffc050200020504
fa00fbf3f209fd00fc0006fcfe07f4fc
f1f6050706fefae804f8f906f70209ff
05f6040f0bfe07f9fde8f8fcedfd060d
02eb0602ffe8fbfa00e7fcfd041a0201
fee9fffefc0e03f70ff1f3faf4ff0df1
ebf9fe08f2f00c1410011501f90a1117
12fbe6fa08f7eb0c02ff00ff08f508f2
08ed0004fa01fc02ff0108fe01000303
04fcff00f60105f5120ff90fff0df2fd
f7fdfdf8f1fcf6fffbed1213f9f2110f
08fb06fe09e82b03fefb01fd08ffeae8
05f6f501fb01f5feff01fd010204fe04
01fd0001faee0c18f915fef4f1fff816
12f9fb09fa0b01ea07fb11130bfff501
f80207f20706f402030aff00eb07f900
fe01f80bfafdfffdfcff03fe02020201
ff010101070ef2fdf9fdf4ffeafbfa06
04f61005fff9ee05e303f9fb0bf8f901
fbfc0803f2fd0404fdf300fdf2fa0411
faf70600fbf400ff01f4fcfa000cff00
fff3fcfd0306fb03fcf80105fa00fc0f
ecfff209e1f6ff0a0e0201090d081201
091100f519ecf90bfc01fa031a160602
f2fef7fffeff0102fc01fbfd00030002
fd01fc01000cfbf601ea020816ee0302
fe01faec0d14faf30d03fefd0d1b050b
03fcf3fb10ec0ff100fdfdffe9e902f6
faff02fafdfafcf900fff8fb02040204
06fdfe0300fb020fed06fa06f1eff6ef
fcfefef207fdff0403f5040a0b0cf5f5
f3f60305fcfefaff0802fb0103fafbeb
f604fa1002fef9fe0001fb0002020200
f7fc0aff0203091200f0fbeb0905e9fe
01f1f61dfafe010114fd020cf70500e6
f1140802fbfe06fe0ff2070ffe00fdfe
fe05fb07f00708effbfb05fff2eaf407
1cf5fe0df801f9fb06fff7fbfefff8ff
f2f90c0d1ff8feef00f401f2f4060cfe
07fbfe0103080406faff0417fefbfbfd
0df9faf10504ffee000b0404f5f3f9f7
e5f1fafe0403fe010602fdfe00020206
0afa0bf7faff030d07fc05011afe08ee
0709040bff0401ff0bfd0bf7fefffcfd
020301fc06ec08fe0307070dfd09ed0c
faf30bf8f7fe00fafafa03fdfe0a1402
020bfe18010911fd09090d0307f6ff00
0a000a02ff03010808fb070cfffc01fd
05f5170401eb07f6f601fc03faf8fa18
fb09e6f9fa00faff04fdfcfaf82408f6
0b0efd04060eec0805fe01fc01fb0f03
0ff9f609fd04ff08f907fe04fb0000f8
f407100c090806040109fb110cfdee06
ebf91106fcfbfd0207fcff050af907f5
080cfe10f8000005fa0405eeeb0912fd
05fe0004020b0603fe0efa09fefafeff
f9fbfd0303f3f1f7080e020501f006f8
08f115f6fdf7fdfff7fcf5fd02f5fcf4
150dfb04f6fa00f8ff11040900070001
fe0100f3030301fd01fcf601fcffffff
00050e15ffff00fd03050600fffc0ff3
ff00faebfc0200f8fcf5fa020306dde7
020205fdfffef1f5060ffef401f7e901
f20b0f0f07ff0502f80613fefafbfcfd
f3050af3fd0804f80f040e05f60502e7
0701080801fefdfb06f9fefbf40afa0a
f8ff040a04010c1103f8fd02f8090b12
f5fe0ef107fe0903f101f8f6fdfefcff
070bfc04ef2212ec0b09070de8f20aff
00fdfc0d00f80103f203fbfefa0104f5
0705eefbfc030702fcfd05f60300220b
0c0dfaf805fb060301ff07e2fbfdfc01
fe0e03fb09140203030308fff4e509f9
00e604e3ff01fbfbfd05fdf7f3f305e2
0704fd0c0103fef209fd04fa05fafe13
0bfa01e70500050114f80104fffdfbff
ffffff0203ffffd9ff04040000f5fcf7
0e03fadffd00fd00f203fcfffb0afe0b
04110614fc0800f401f4080908050604
ff1204ff0707ff0105ff03faf8fbfffc
08f3fe08fe04f40c0608ff050ceb0cff
03e90416f9fefc04f8f4f90a07ff04e7
f5030a06fef608e803fdfffdfbf9fb09
fc0205fd06000404f2fc0305fffdfdfc
f904f7fd03f5ff02fe0204041cf0fdfe
f7000cfe05f4fffafbf9f7fcf3020dff
0b14fc02f9e6f50302fd000005f6fa01
f2080dec0201040d00fb07f8fcfefdf9
0d020e0d0608f20405fa0711f704fbfe
f412f30702f9fefefefbf7ff0efa04ff
fcf20efffefd11030005f5f2f2edfaf6
01fd00f2050d01050308fc04f9f2fefc
fcfa1af60a04ef0b020a0906f9fc01f4
f9f80cfafbf5fafffff8fffef1f40fee
0707fd0105fde413040707fb0c0609fd
fef90eec0505ff0901020b01f9fcfffc
0102f50cf800f5010306f80d0b04f9fc
0c06f9f9fcfbf8fcfefdfcfc0e03f0f3
f7fc0ef904fd04f806ff0bfefcfffefc
09f80b0cfd0400040708ffff00fdff00
fbfaf7f40003f6fbfdff04f9ffe905f4
fdf4f81100fdfdfd0400f6f5eef4f1e8
0911f9f805120009fa07f70209060d03
ff0bea03040501050af9fc04fe00fdfa
02f627fd030bf20204ff0803000d02f8
0bef18fafe0001fdf6fff7fd02f90efb
06f60308f7fff3030007ff03fcf4f809
faf005f9fe0400fa04f7040c00fdfffd
f3030314f314dafcfa00fd03f027f9fa
1d06f1fffdfe03fafaf6040a060bfff6
fd070bfdfe29070a0405fef7fa192200
08f6f7fcff0403010cf906fafffefefc
04120af1f707ff0ffc06fa06020ef4f3
f8f6f103fafbfb00ff0007fb07e6fcf4
03fcf704f4fe08f7fc0209fc0e08f90f
f0fbf6f9fd06ff03fffa080b01fafeff
e406fcf4fa000b030302fbfce207f7f7
00ff0bfeff02fdf9f2fefffd0e0af5f7
1904fdf9fafbfcf3fdfafc07f1031007
e4f4f7f905ff0502f6140bf3fefcfcfe
f5ff021307f504efff050603070b08ed
f80106ec04f9f8fcf80afcfdf9050112
0dfdf6fc1a12f80f07040200f80703ff
0beb040f05fc03050e04090dfcfefcfc
f00906fb0507041505050a01fcfb0804
fdeef502030004fb0208fffb13ebf5f5
f20b0aeef100faf307fff00d130f0cfc
05f4f703feff020110f3fef3fd00fefc
fb090f04180405f605fa020afbf4ed00
f8f7fc0000fffcff0bfd0500edf4ef11
f700120201040bf5fe05fcff07f7f1e6
fb00f3fb0305060003fb0003fefefffe
03170609050c0e08050402fef8150aff
faecec05fafe02fcf2fc03fefdecf9fe
fff90208f7f8fefcfc0f0f07faf60905
070105faff00010508f9030000fafffe
02100402050606ebfa0afd0cffff050e
0bfdfc11f4fffafc040003f50605ebf8
fc01fffded0700f0fffdfafe160101ef
f90bebf90703fe01f013f303fafdfffd
18fff8fafceeec000202fd0505f8f3f3
fffc0604fbfcfb03f6fafbff0c01f8fa
0a0708081609eefb0df907ff0107050e
0cedf1f6f80107090010f60601fe01fc
0c060bedfbeb0400f006fd04fe01f906
fcf70b04fc01fbf70207f100fd15e903
04080b06060414f10a000111f80afbff
fe06fdf803080409010806fbfcf6fcfe
fff504f501faff1900040500f8f402f4
fa000406fff9f9fcfefbfceef80a02f2
0709fff8f9020107050a010e0806f90e
effcf3eaf80810010401fe06fef8f6ff
0e030110fd0102fafc0817f9f902fd02
2201f90000f8fafa0bf7ff03f7fd0202
12020410f5fd080e1306fd0cf5fefeff
1310050bfc0702ff0af2001100fffd00
0c0007f3040806fcfd0102fc0bfffaee
fbfdf8050300fdfaf4fefeff0702f818
f5f9fd0703090103f70f0001050701ff
fc05ff0206f6070300020b08fcfefdfc
012000f300eb0808060305050707f601
07040304fcf5fd00fc01f7fd0205faf7
fb0ae800fafffaf4010607fafbf70603
fafdf6f10806fe04f20306fefbfefffd
0c02fe0b0804ee07070a00030bf710e0
fcfa0004fefbf6fcf7f9ff00ebf9060a
fb11fffff103ea0608060b03060b0e07
03f5fafbfd05fd0602f500fbfefc01fb
fe0e01f400000900ff01fc0cf7021f0d
f700fffbfaff05fdf909fe05f2ffe102
0d0310f9eefe23ef01000011f0f6140d
fef4f5f70601ff05fff5070cfafd00fd
fd0fff0b04fcf50705fcfe04fafc0a12
fa002003fdfbfc00fa000100fafe0df4
0409fdfb001b090e05050e0807ec060c
0ffcfc05fb05060405010404fefdf6fb
f3f6010b0afff80bf903020413f90910
e5f9020dfcfcfafefdfffdfaf6040aee
1100fd03fb0206110a0008f5fc03fe05
05f4fbf1040002ff0b08ff16fd0000fe
05d014f00603fa0603ff020005f70cfc
fff8fe00fdfffcfcf506fc05fbfb04ff
fb1108fae90a070c08ff0b03f8f6fa12
0c0702ff04030203fc010007fd00fdfe
0511f3f91d09f40dff00070208f60704
faff020afbfbf7f903fb03f4fff3fc0b
ecf5f7fa00fe0804060cfa0c0bff0100
ee05fe0901fe0307050008f7feffffff
06f40cf40cf4f4060103040612fdfde9
e6f004eefc02fff801fffdfbedff13f0
0301fd0002fd110410030700f8041725
000af0120004060405050afbfcfffcf8
f9f9f7fe1108f6060103050a1bfcf807
0c06f305f6fbfcfc01faff01150cf908
fa12f409090c0406010b010aff0e0009
06fe13fb07190101090ff204ffe6fdfe
00031d070903f7f2fa15fe03f5fc0d05
13fa00fbfce7f903f8e9ff00f8fb0ff3
f40efcfcffff020508130704040928f8
0b07e3ff02fc0502060a090700ff02ff
fffc100c02240611fffcfc030a0e1ef2
e806f705f9f9fcfd0602f8f60600f40c
010cef0604f7070d010305fc0afdea04
faf70af90005fb07090efe07fdfe0000
16fa0506021ff4080700f90007fd0211
fd010809fafefbfa04fb06fcf7fffe19
fa0817fbff0ae602fef11f0a0b06051a
fdee1313040cfefcfafc0807fbf7fffe
f4ffff09e30a06140917fdfe01fffb00
fefc05ecfefdf9f502fbff06fc01fc12
f50401fb08050007f5fe0a0aec010f02
e302f400fc0cfe00f40712f500f3fdff
f2fff80ef60309f4f4090605ddfb020d
21fbf8edfef5fe03faf70900fafaf613
100afe12fbff01f9040604000a0711f2
0aee011001030104f310040700fe00fe
00f5080bf215fbfbf804fd07000dffef
0f08100c020400fffcfefffbea120309
fffd0c071a0ffc09fe09070400f513fe
04f50200020201020206fc06fffffefe
eb00f1fd020ffe11040004fe03160606
1d01020101fbfcfcfdf6f3fe0b00fbf7
01fcf20710f7f207ff08fafffbfb0eff
feff0ff80304fefbfa06fc26fcfefdfd
04070909051303fc0904010101010402
fde805e601fdf802fefe010d06f3f316
f0fb0900f3000e02030ff5010103fef9
05010504fefbfbf7f4f7faf4f703ff0c
030105f2fcecf7080fe0f2f706ef11ff
fff30afafbef13fa0b0c020307020101
0c110f0010160e0807f501080de514fd
fb0204020b05fce6f712f6f300f7ff04
070f06e90902fbe9fffef4f205030a05
0f0009f90a140af607110af500fe0700
05f90efffd02010a0bf602fe00f50afc
0401000702ee02eefbf10304f901e712
f8f207f2f7f9140416ff0f03fefb0ffd
f7080507050afd2a0a03140702020205
f300fae6fbfc04ff00f0ef0008121014
06030101f7f406fd06ea0f0af70400f6
0af0e50b00f5faf9fef7fae4020a0f18
0a070402fe0af803fc070805fefd0afb
fa03ff060cfc0a08fef7ff0d080aebfb
0401010008f90e09f8f712fa0efce8fc
f50604fde1fcfc0af7f107001d09f2fb
110c0106090d05f4030a07f804ff0302
11070b110009fafc0800fd08f30a04f8
020801020cfa13f4f6f800ed04f50602
05fc17f90600fdecee030702ff0701fe
f80cfd040201f70b03fbf9fc080f0404
f5fffce805030b050d02fe0301080bed
03fcff06ff05f106fcf4fafe0302f4e8
fe05141001f4e7e900040fefff0ffe0d
010405fdfaf9ff07010c08f203020306
020aff08000206fd02f5f116fd04f4f2
03040301fbf9f1ebfb01fc0e1002fd04
f8f2ff08f6fc00f6f706fc0105070703
04050502eefc050dfefb0a03020306ff
f117ef0df8fd0002050407fbf7020315
fe0302ff0d090ef306f80cfdf9020803
0c08fcf82301090004ebfae7e1f625ed
040204092300e6fe0afb0506fe040205
08faf50ffc040403faf6040105130009
01010403fe0103090501000b0105fb01
1cf9fa06f4060620f805060a1200f6fd
00f108fb0ce5faed0312030904050401
0d04fbf804020705002001030eee00f9
02050401fff3f9f9ff070111fc0405ef
fcfb060a00fdfefffa00f7ff06f70704
0008050206f502f8070a03f604070601
07fb0601fb0404f6070c0014fef408fd
08020000020803f9010ffc020105f2fa
f61206eb0bef0aff13f710ddf0e81f03
02fef8fdedf7120b0406fb07090404fd
fa0006fb03041502ff04f50af2f8fefe
fe070105f3000bffd809fdfcdd0502fd
0ff7f6011014fdfefaff0efef1070500
03fcff05ec02f206f6040403fa040205
0a0d020304040405ecfbff002312f903
0008010013f405020310f40016fd09fe
01000d09fc030708e9ecf7fcfc09faf7
0504020202fcfd0206040d0804020102
0c02f9fa07fe0200fb0f0e0000fafb07
080d02fffffc1006fbfd0afe07fffafd
120c19f607fb20f7f4fdf7f60e0608f8
020afd031105120901050afb090c0100
090bef050308fcf50c0006000d031df5
07030704050102fb0605f4fa05fb04fe
f9f904ed0103fef80c08f500faf605f9
00070b04f4fa04030200fc0608020609
f5faf5040005090005020bf9f6fcfc05
02060102fc07f809fd0ae8ec01fe030c
fbfe1000fdfa010400fc0decee09f0fa
000200ff00f70dff03080f06020700ff
fd0ff6030308060b0502f612fa02fdd6
0101010401e7effdfdf5f6fe080d1003
f60d0f080601e9fffefa1cfa1001090b
f901f805fbff090606f8f70303000306
faf4fb0c04071303fcfd190602fbed07
0202ff04fbe006ea01fa09f9fe03e8f9
f215fbf5011211f4f90813ee11011000
fdfa0802f4eef6f500f4fefa0900fb06
090af518060cf80508e9e917fa07fd06
07030701fdfcfb0002090306ebf80005
ff11fe1a0ff90bf0080b090af8fdf80c
f8030b01fd01fc00090905fd000502fd
f8f4fb0608030af8fe03fafafdf1fd01
fffc030913ff0dff05030700000906f7
0d0707f60a0901fb09fefefee9010c00
f700fc04fd0403f70604fd0504fc020a
06000b0300020a04f3f912fdfefdfd10
ff0805010402011a080103fdfa0efc0b
fdfef912151704fefeef0c1e0ff7f710
fe0b070af605f7fd070401fbfd0b0202
f7f9f817fcfe07ff1012041401f8f60a
0002fb05f8fa0b0dff08fa0bff0afc0a
f917f70a03fa02fe03fe120df8f6fbff
010502fa09ffe7fd0606fdeefb030103
fefb0d05fdf7f302f00bfb0203f60b08
01030403f9fd050dfef309ff01f41b00
0ef7fdff03f5fdf508fcfe00f6fd0d06
fdfe080502f2fe1704fa040702020502
fcffebf4080305fd00ecff0bffe40bf4
0501ff030302f3e9f0070b00fdfa02f8
020b1207fd03fdfbf60e040cfa00ebf8
06fe070701f5ff0efc0804f60b070408
f3fd02060305f90a04f3fe0d0600000c
0901060404fc00ecff05090bf606fb19
fa00f909080310f1090bfa0b05fff906
09fdfdf8081507fe0103fb0b0303030f
fe10f70705010901ecfe0bf701f8fc08
070305fef50a08faf8f1010205ebef0a
1810e912f50103f4f31808fff8081709
0300fb07fc070e09060a0a0105040300
f3081508fe0b04fd0d030806f703f3ff
0602050602fdeeff06020efc07fd03fb
0a0b00ff0805f50704eaf0fd04fef9fb
0406fc040015e90001140b00fe050506
f9fdebf40efc0f04f9ff1104fbf81003
020906fffefb07f001fc01fc060701f7
0afffcf0fd01020df2ef07fc0711ffeb
030703fb0b0cfd09020402fb04090406
0b0dfc1b040604fe0406fe0e060bfaff
030805052601ff101001fef6f40101f0
17fefd07f0fffb0dfc050400effef70c
f805090610f9fe10080603f402060803
fffc1011f20502f502fef10223ffff10
fc010403040305f902e60400fff7050e
ff0d04f0f9f3031110f6fae201fffc0d
fe0601fdfa0dfc0a08fefc0400020303
0c06ff04f8fc0009faf509fffff9fd09
0302020108010603030c03edfc000f05
fa09010901fa04fd090308fbf80403f8
07f30802f512f5f702eaf70c02050003
f90bf5030416fe0200120309fb0beb11
0302050208f9f91300ee0003f2f807e5
1406f220eef802f51bf4fdeffb0b04fe
040f0305f50c06000910020305010802
fa0908f7020906fdfe0002e9ed0bf507
0101ff0210fafbfcf0ff00f2130909fa
0dfb01ecef0714f6e5f90e04ec070600
fd07f403f80c17fdfa00030706fc01ff
1af3120dfc0a0d00f80004fc02f8fbfd
040503fffcf8080af70fea09020611e3
0709f30bfa0dfcf5f706000807030713
0701fefa040f0bfe0700fc0b040108fe
0900fafb03080104010712fb06f80a0b
00030a0200e90208edff04f8f1f80308
f501fa0cf20104faf6ff03fee6f8f70c
fc07ff03fd03f8f1030a020bffff0c02
05fffefd02ffff002104fe0a00fcfa03
000502050bdc03e51004f9fb01eafb0a
05fefb0f0207050b120bf8f3f0010906
fbfd0601ec020506f80b120105000606
00eb00fc06fb0ef4f803f60b070201fb
04ff08050203f901090bfbfc0ceefaf8
030d000ef8fc00f8f20ef6f0f8040704
10f902fa1ff3fbfbfafe0a0bfb040304
070702f6fc080906fff2071206080bff
01ffff03fb1a03d620f70f07daf800f7
efea00f5f52c1e16f32408f511ff0302
fefdfafff006f7fcfa0afb0606040203
120efef8f2f700fe180010f9050505fa
070103040603f7fa05f9f70409f7f501
fceb0c03eafe01f7faf4ec03f7121606
090702020109fa001211fb020003f8fc
fd09f810fe0dfd06ff0aff020c0df9f4
011a0500f0fcf9f901f702f10301fcfd
f403ff0e01fcf10bfff8f40df80c0dff
031606fe1505ebfafc12ed0401180606
f90a1d0d0a15110810040810fe05f6f5
03060400edfa040b050ef20dee1007ed
08f9e4f9ebf3090103f203080efe181b
07fe09f602fd0211f712e70c03ff0204
f1ebf2240cfff001f10900f3fafff300
05030304fff7edf90a18f001070c0cfa
fffcf7f607040221f8ef15f5fa0bf4fd
0dfa0b0b05faf2ddfffffbfb05fc0703
f904eceafb0cf0f7000b14faf1fb0e19
040209070cfffe0e07fcf2ec0e03fa0f
170af6eef1f6fef205fdfbfd01f60704
0afd05f90b04f31d090109f201080706
03070b1400f80d03fdff04f40b0700f9
040c01ff11fefbf5f6fc05edee000ff6
ef0710041afb0bef12f9fefcf30b0103
f60b0206f9090a030107fb14040c0502
ee09040ef40afa03010212e7f707fc0d
000200fe1c00fe0ae21d03f70ee20c00
eaf9f1f3f425fef50afdf9f7f219f200
00fa07010ef308130604fbf9ff020302
15fc040203ff0904fce0fcfadf020e0d
02040406100f02f10707fcf8fbfcfef7
f50dfd0a0efdfffcea0c0305ec12090a
03ff02031bfd03fdfcfb06fcfc050704
fdfc0bfb02070204de01f9f901fa1102
ff020802edfcfe2efeff0ce813000700
fa10f300f1fafcff0002fbf805fdf700
05fc0602fa0c080c07fcf6f3fc040500
ff0bfb0af7ff09f7f5fa060cf80afdf7
0eff150b09fff9f608ffeb07fefffcfc
05f4f60c062403000505f80a02000505
f6eefbfefbfdf9ff0d0e060a02f8fbff
0905fffdf5eaf90111f014061401fa04
fbe50cf6ff00faf7fff5f6dd01fcfcfd
0d0af7f5fae8f81409110204ff020302
f209fcfe04fcfdf8f1f80810fa03fcff
05090606fe00fd08ff0efff9030af90c
06fd010405fc000109fa0400fefffcfb
12f9010d02eb06ef03f709ff03020205
ec010cf1fb01fefc06f8ed0102f90902
f8fdff01f3ea0bff11fc01fdeff902f7
05fd0401fcfef6f5f30710f3fdfcfefd
f4f6f1f4f4f108f5080a030003040105
fe00f11902fe10000b00f2ecfa00ffff
00fbf20010f0effb06f90b02f8faf20a
1b0d04fe09fdf8fd1bf7000bfdfffffa
03fdf80ff2faf702f8f4090b04010002
fcfa02f501f900fff601ef05f8fbfc02
07fc040726faf3f604080c0e07fff5fc
ec0602f503f005fd03f502f7fef6fefc
05faf50dfefa0e08f40af81201080102
f3fa11fafd060000f10d0cfbfa02fc0a
fbfd01fd0f05fef20703fa0afc09f4f8
faf31b01fdf802fd03fafafafd0101fd
040e0e09fcfce9070002f70603ff0003
01f305f3fbf7fe03fd0103e80001fb05
04fc000702fbfef4fdf1fcff03f5edf6
0bf80203fb01fe07e507f50df8fefafc
15fa0d0e06fa0a060dfc0f0105020404
07070502fbf101fdf1fcff090007f5fc
080bfcfaf603e8f806fe0314eefefde9
04090df7fffefd0206f605edfefdfefd
08ff11fcfdf70a030305faf401020201
10f00009fcf20af9161813de05000413
fcfffe031010110a120a10f80407f607
1a15f303fcfcfd05e7050d08fcfcfb00
fff50816fbdcff03010d000702030500
01f406f7fff5fa060ceffbfffbf6fbff
08030100fdeafd030a02ff05f8ff0501
031406f4f304f9fcff0cfb14fefcfbff
0ae2ff0d0804fe0e0015fafc04030402
fd08fbef05fafbfdfef102f2f90efcfa
fbfe0803fbfb02f50a0e020403f300dc
ec0218f9faf6fc02141b2505f8fefffc
09fcfbfdfe0df3eb070402fc08010203
fefd0a0bf8ec06fdf9090706fdfdf0fb
0802fd0d07011afaf703f9fb05fe0b08
f9f9f8020106fafee211fefe01fcfdfb
f4030bfa2406ff0014f3080300050205
1110f2fefaf8fafd100e0005fcfc03fc
0702ff02f7fc0800e6ecf3061bebfefa
0bf4f30cf4fefbfbf7ef01fcfdfffffb
f7fb0bfff204020501ef0cf803050102
040af9f4fbf50903fb0806070109f9ff
0505f80500e811fdf5fe03050005f4fb
0b06fe0efef6ff00eff40709faf3fcff
f1fdfaf101f8f41cfdfe12f4060d0402
030304eefff6fcf20a06ecf1fcf2fffb
0b0fff0dfdff07081101f2f6fffd14fe
ebf7f501fefff9f70f08fbfcfafcfcfb
080501f7fc00fcfc0b0110ff06040602
03fe00fdfffafd07fbfbfa0afdfdf206
0801fc0303060b02f9f90e0209040506
0d020505fb06fdfdf411070bfefcfe00
02ef05f7fcfbfc0cfb03fe0402030201
f50af7f6fe08fb02020804fff401f902
07ff02fa0002f6fe0a00f206ee040c05
0c060807fa00fafa0105f5f8fe00fefb
09fc0ffc08fde4ff05fcfbfe03000204
fcecf1fdfc0306fd0703020706f80cfa
fcfdfc0701fef4fb00fa0105081317ff
fd0c031af9010006f4f7fa0bfdfe00fd
0b1212fd04ff0214fa0df70901020104
f5000010fa05fefcf903fdf701ffed04
06fe0a0602faf302030df31902f2e909
fa09fe0afe000201fefef2ecfcfefdff
07f00300000bf8ee03fafff902020302
f1fe000702fd03f407fc140d03fe08fd
010405080505fb13f304fbe8fd030af1
110506080908ff001803fbfcff00fefb
05f9fd07fa090ef3090008f9ff010203
13f6f8fff6f7fa04fdf50c00f7f40501
ff070402030410ff070eff01f80404f3
f8fceb0f0006fc00ec111512fefafb01
07010a16f0fc0104080208ff020406ff
fa0e02fa00fcf709f904fc070204fb11
000e03fe06f601001004f91df8000809
0b1108edfe05fffcf202fcfefc00fefd
0cf70202eef508f400f81bf503010003
fe0af307f7faf9010513fc0a040501f5
020c0308fb05ed0411fc05070a011301
04f3ebfdf9f9fd01e2e70200fefffcfc
f415f60502020c09f8e5051302030503
00edf8f2f8fc030209f7fc04f4f1efff
0f06fefff80b010c0402ff0208e6f601
f5f8f00bf6f902f8fffcfb0cfdff01fc
fe03fff7f603f9fefef6f7030201ff03
fdfc1804f60005ff05fce5ff02f8fa03
0302040111fa01f90205050aee020217
13020dfe07fb0207fb0309f0fcfdfdfc
0908f4f7f70812e8f0f3fd0e03030301
0b0704ff03f908050cf903f80101fd0a
020c02fbf1010105f2f81f09fb020901
edf6041101041300020dfce3fcff00ff
ebfb0e01f6f8efff06f3f10505010100
fb0d01ff01fefef40704fd08fe030605
00030607fdf7fb0dfb02fdeaec01fff2
f1f3f01503040100fefdf6fb00fcfff9
fdf2f9fbfefcf7040816fbfa04010206
050807f5f702090503f112fdfc0500f4
0501f5fa09e0f4fb03f003ff06050402
0906f807f9f8fefef6fd0300fdf6fbfe
fcfe03f502fa00ecfffc011f02090600
00ff0111fbfcfe060807fde5fdf9fd08
080a01fb02fb02fd020b001501fe04fa
f4fa0af707f9f6f70d0300fffef8f6ff
0403fce80bfe0a0df60200ff03080603
0dfef5e9f5f60a020bff09030dfb03fa
090700060b02fd1a16fefe0119fd0106
04f908fffa00fefb0af0f91704fffdfe
fcfdfefff5ed090108fc0002fe000303
0bfd0301f906fe0503fe090801fafe01
03ff07fb00f305ee0602051a0803f90c
f90cebf7fe03fdf9070cf8fffcfcfffd
0502ff0afffb02ec02f5f7fe04050102
fc0efdf6fbf30000f8fd0706fcf5fafe
0101050404f8010ef9f9ef0a04e50005
fd0b12fd01fc03faf5f2ff11fdfefefc
faf004160cf912080bf5f30b03030403
fffa2002fbf703fa0102fb11fffafc00
05fdff000df714faf108150cf9fbfe07
e4f7f104fa05f5020dfbeb02fefd00fa
0cfef2f6060ff600ff06f10403040104
f808f409fbf9fb000a070010fcf700fc
00050501fefb02f0ed0b0402f8fcf503
0efbfb0ff9fa02fef5ef01f9fcfefefe
faf3f103ff0006f6fbfb030c04050202
fa0de3f8fb08fdf603000108fa0207fd
0704ff03ff0af5f102f305f7fb14040a
fe06ef0901fefbfc07090f0002fbf6fd
01f9050cf604fb100405060501040804
01070405f901fe011af5fdeffafdfbf2
02ff0e04f60d01f50c06fbfc0bfafffd
f6f706f3f3faf803000a0df5fdfefefd
0efaf90c050b05fdf2e6fd0704030201
02fef009f6f3fefdf7fbf910f90503fd
030bfa0b0e16f7fefd1711f7f80b0c07
0301fa03f8f7f9f3f6fb0605fd01fafc
edf5fffbfc0300f30df7fbef03010406
e8fef905ff01fefbfe06fe0c01e8f9f8
00030601160402faf406fb0007fafdeb
fb050eec04f6f8f30ddeeb04fffefcfd
0dfc13090fe91e051204f2ee01010103
f6fd06edfcfbf7010501e5fc07fcfa04
fc03fbfc11ec0dfb1803fe1ee1ebdbed
0c0306f90400fa01f90e1704fbfefffa
e7fefbffefff0a05fa07f40005020308
09f9fc06fefefff70f07020bf502fefd
03f70205070006fb091601fc09f90b01
0d040ff9f8ebfef5fbf91fedfee6fdff
01ff0e02eafdfd011402faf5031a0200
0ffbfb0611e908fbeb07fa00f3ebf100
fd17030807fb0afb0d08f7eb0400fefd
110004f5f6fff7010708f8e5fefd02fe
07f1dffd0be3f7010ee5e40e02060001
0509dffbfff4fefd050af7fcf803fcf7
fd01fbfbf4f00af306faf4fbf00bebe4
0bfc0501f9f0fa04fd140ae1fdfd00ff
fcfe0ef501ff0e2df7f1fefe02040102
fcfaf716fafffd0310ff01fbff000701
0cfe04f90803f7fcf8020703f70303e9
0708eceefcf5fe02fcfe06edfcf9fdfb
fdfeff0c0c06f210f0f7010d03040303
01f214d5ff0401fafa040413000402f7
0b030204ed010afb04fd02f409ffffea
0909f7fb00f6030108f50006fff4feff
f2fc0807dafffafe09fffdfc020c0001
f2fa0aff01f6f6f9fc060ffffef402fa
060c0e02e7ff05e30506eced0cfdfcfa
f8f3fcfbfcf900fadffa05f301fdfffe
f708ee1201f8f503ed08fa1000000202
03f50af507fa02fc0008f50000000502
030402fcf505fdfa040b0cfbe5e81411
fcf40503fbfefcfcd3fc06f6fcfefefc
27fafbf80bea01fd1bf8fa0102010204
fae810f8f6ffeffe0c1e04fafeffff09
01010e010202f3f5f2ff0212100bf812
0ef205f0f4000606fcf7f1defefffcff
fe0bfff706f7fa0104f3fd0b04010401
0d01f5ecf006fef105fa02fbf9f106f9
0902040cfef906ff0c0d0ffffa060205
1afc02f201f50cf3fa00fdff1b0c180e
fcff02fdfb02f7fb01fefbfa0201fd02
02fb00fe040b0102e4fc09000000f4f8
15fff1f5fbfdf408f2ed1010faf3010e
fa08fc04f5eafdfffefa00fffa0707ff
01f704f5f903fc03fbf800fe05020102
fbfe03f70408fff7f508f2fcf510fd09
04faec06f909fbf9fd13080d01fd0506
f6ef04fe09f30af9fdfffdfefa1600f9
000f01fe0301fe00fdfefdff03010301
fb02fe000808060aeffefffbfe17060b
fdff01f4f309fff8fd0cfd030904050c
f907fb080af7001402fbf9fefb0bf9e1
0505fffbfbf8fe0801fefbff00050200
fbfbfe000916ff00fe0bfaf506030011
f4f7f90001fffef3fd0f090e0700040a
04fcf5130707ef000afd010204f30904
fe030500fe05fbf700ff03f701010401
04fc01ff07040905fbfde810fa0dffee
f5fc0b09fb02fdfafdf4f7e9f3f400f7
fd06ff15fff904fefe00fafff9fdfb09
fff7f3fd0001fb04fcf9f7ff03000702
ff00fbfe0e08ff0905edfd02e70a0a07
f900ffffffeffdfa101105fa00fe091a
02f9ea0d03fc01f7fbfefbfce8fbfff5
0002020100fe0001fefefffd03020201
fcfdfffbf804f6f806f80615fefa05fd
08fbf500f8fef1f8eafdf7fcf60202f9
f8fafe16fd1308f706fcf9fa0fedfcfe
0b0400ff0100f9fafefbf9fe01030104
fd020604ff1706150d08faf50ae406ed
01ebfb05040006030b1df70102fef809
05ede011f201fbf8fffcfdf901fefa13
f70815f9050202fb030002f604030406
fa0300f907fd031df7fb050213f2f801
f90f0ce602fffbf6f0031400fb06f0fe
fa0409ec08fb13f1fc0bfe0104fee72b
ff02f804fa0206fb00fffe0302000303
fc00fc02100404eaf7fd090306fde719
04f9ff0df002ed0102fdfd080afa08f9
fdf6ee0b13031405fbff02fbfdffe302
f707fe03fdfdfcfdfbfcfdfe02020504
fdfcfd0005030112f30705feef110203
f1e9eef1f90001f1f6fdeb08f80bf904
f4ef0ffb23fe03050000fff812f5f4f6
f4fcfefe06f700fafe00fdf9ff010003
fafefd03fa0309080002fff7fdf50405
e7f9fbfbf7f40800f802eff6050202fc
01fd0cf3fafb03fdf7f8fd0203fffbf6
f808fbfbfc0203fdfafcfffe06000102
fbfb00fefefb0ef007fef90005fefe07
070b20e9ff0905fafa03fe09f30b14f1
0909faef0ffd0005fdfcff010b0e00f5
0d01fbfafefefb0100f9faff01010301
faf7ff00040f000a0c04fcfe0cf3ff02
05effcfcfbfeff081cf8fff8ebfc00fd
040402f314fa08e9f7f90000faf8fa08
fc02f711fb0200f9f9fcfd0107010401
fef6f805f706fc0b060901e9f20513ff
0be704fdf9ff04fb16f702fb04050e09
0a05f212efe7010ef9030301020bff04
f8fdfffffc01fbfafcfeff0103000104
03fbfff902f5fe07030900f9fbf1f8f7
00f3fbfbf5fe01ff0315f8f9f303fb06
f6faff0efb010cf7f301fff8f4031100
03faf8f4fcfdfd01fbfffef904000405
00fefcf9f3f7000801060c10ff08f30b
08f8fd000d0c08ff080905fb09fe00fa
e10eef0dfefd010dfcff04fcf303fafb
01f8fd01050005fcfefd040000040205
fcfcff00ec0807050301f90b0a070be9
0002f6fee7f707fc130ef207e0090512
010702ff0308ff0cfbfff900010900ec
fdf8faf9fd01f9f8fd04f90105020804
fbf9f8fcff04fa0001fa05f502f7000d
01fe070800edfffb030701e10310fd02
ff0712f6f7f2db0fff03000205f901fd
0100fbf1000303fdfd01fd0300000204
fdfafd0005fb0a04fd0102f4051805f8
f7ebfd0405fefff10c03ef12fe10fef4
02ff09f72e0b041e03fbf8fceb08ecfe
fd020701fbfeff01fefdfc0100040401
fb030000100cea0003f5fbfbf70a0510
ec0f0405e4fff6ed1301f3f5e910f50d
fde9020002e1f6ecf9fcfbfdf8f013e1
fcfc0205fef6fbff0207fbfd04050003
00000200060a010d01ecfb040df5edff
0c02fa03f9e9f806fe0200f9fceef9fd
0cfff3fefbe90201fafe00f9e60b1300
f5f202fffcfbfbfd01fe00fb02ff0204
fe03f9fdfcf4fe04010505f9d921fb02
02f3f8fae5ed0cfcef16fefb04ee0d06
eeff0606fa0002ff05ff02f81407fbf8
f6ff000005fefcfb00fd00ff00020005
00fffefa0cff04fafa0003fa05fefff3
f3fdfdf3fa0006030ffd0508fefb0100
04fc09e9f3eef307fafe00fbf3f40314
f2f9f7f401fdfffffcfb03fe00040306
f7f7fdfcff03f70afff6fdfa00fcfb05
fcf7f50a0af7050a050ee500fd07000a
fef7fe1206090d19fd01fefdfdf2fbea
fffef6fafbfdfafefbfffbfe05000102
f9fefdfbf9fbf31b0df9fbfc10f40f01
fefef8f702fff50605fd0b14000107f8
0a01fd01ff06111001fbf9fdfcfd0dfb
fffa04f5fbfafefafbf8fffe03030103
02040204fc06fcfcf9f60103fb050c01
07fb0ef7fc07f3f4fbfe0afe07fa0108
00fb04f90800fa1cfb010200080707fc
000000fafcff00fcfd0003fc05000403
ff00f7f604f8f7fbfa0405f3f9f1faf4
02130aed0404fd16fdfd08fbfd0309e4
0609e5f5f703ef05fbf901ff0809fdfc
01fff800fefbfefd01fd01fd00050103
0100fdfbf1f70901f8fef002f30f18f0
000002f3fd07fa09f3f8ee08f7fc08f8
0902e7f9eefff80cfcfa0700f905ebfd
0bf90dfd00fa01fcfffa0002ff0700fe
fdf8fb01fbfbfe0c050302f6f3fd140a
030b07f7ee000e0c020100f406f7ff06
00f2eb0405fae1fbfa01fe0000fefe03
faf209fffbf9fffffbfff90206010104
fbfffef702fefbfbfe0203050008f6fb
fffefa050203ecfc010908070102f10c
03f3fbfe07fef2050002f6fafb06f512
00070102ffffff01ff02f9f901010302
fafdfbf90105ee05fd0600f7f2ff0205
01feff04ebfe1103eb03040314070f11
fd00f8fff70801fdff03fe0005050f03
fcfefffcfffcf9fe01f9fefc04020501
f8fefc01fb0ff3000402020102000c04
04fb0cfefc0201fc0311fcfc06ed09ff
010dfe1e1a0d03fcfdfffa0005110307
01fafcf9fffdf9fafbfaf9ff03050702
fffef9f8f410ff0203fb04f7fdee010f
09ff06fa03ff00f5050f01020801fef7
fbfd07040ffdf8f9fff7f1fe0bfd0a07
09f8f7ff00f6010100f9f9ff03090401
01fcf300fe08f70bf9f9fd01e7fcfc0b
0406010503f5fffc050803f71c0d0f19
08f4fbff24fcf50601f9fafbee050af4
fb02f404fbfdfdf9fbfcfafc01070302
00f7fffe07fdfef615ff04fc0bfaf906
f50f07f9100401fa0dffff0200fcea0d
00fcf0fe03040408fafefafd0500f4fb
040301fffffd03faf5fcfffa02030103
f7fafbfe0ef918020b0c0003fd0ee506
eaf7f5ff0302e600f9fd0af40e070203
02f3f9fd07ebe6f2ff0504faf1f7ff13
fbf8fcfb010601fc030403fd05ff0201
fffe01fd01faeefdf7fff40beffefcfa
1208fc010501f6f70606e1fb120604fd
f9fefe03fff5f4f7fdfffef6fcf5eef6
ff0304fcf8fffdfcfdfcfbf803ff0008
0701fcf70702f603ed15000205050008
00f3140207f612fdfd04fe01090eecfd
03fa00fc04f406f9fafdf80105f90513
fbfafbfafdfaf8fefcfbf7fd06050903
fbfcf7ff010afff803f604f302fffdf6
00fb030c01f6fe0d000202f0ff08faf4
fdfefbff12fe0b090504ffff04f60704
f8feff02f600f900fcfbfbfe02030203
050100ff0c0def040efff9f306030411
f7faf6f9ebfd04fd02fc0202f6010619
fafbe8060bf90bfbfef7020207f9fc12
f9f7fffe02f80104fdf7000106090203
f9f8fbfd030bf31301f306f4fcfa0118
fcfbff0507f6060afb0114fe120c04ff
0704f4f7d1ff0f1304f8fffd160c0702
faf702f4fef8fefd02f8fafe020903ff
03f8fd02020907f9f304fefc140115f8
05fc07f5eef8fa060fff040df9f1f2fd
fafdf4f0fd0f00050100fffff3f8fff6
ff04f700fefcfcfd01fbfafc02000404
fdff00fa07fd0004f9fffd0504faf9fb
f80afef7f80005010005f4060315eef7
f9f80513fffc0afafbf2fefa0cf70506
07fffdf9fbfffc03fdf704fb01030404
00f601f805020c0d0106ee050e05f0ff
f504130dfe0605000103fcf6f60efb0e
eb00fdfd0500ff00fbfd06ff0af8f803
06fbfafbf3fffafcff01fefc02030102
04ff0900f8080300f8f20901f5010b03
0212fdfeedfdeefdf4fbf1ff07091602
0307f10600fcf7fcfff9f9f9050509f8
fd04fa08fdf804f7fcf7fef902050303
fef9f503fe0c00f3f4fbf2fff7fcec0b
fcf6fff11600fe1100f101ff05fffc04
fa1301e5faff12f5f80202fff9f517ed
f800f700f8fd02fff800fdfd0900ff01
f8ff0203090117fdf4f8f702fd0d07f9
faf9e7f7f8f9f80ffefc1d110bf70a20
fe0efcfafe06fb01040e000efdfd0100
03f1fdfdf2f31deafe07f5000109f6ee
f60601f9fb06f70206ff01f7eaf100f7
f8fcf80d02f3fafdf30a0e0302f10604
fb0ef0fa0807ff030c0012f4fdfcfefa
0900f5f90b250d03060800070d0afefc
f7f0fcf80305fbfcf9030809f602f301
fcf2f8fff9f107fb07f7fa0804de1700
0811f6f907070403fafd0008fefffe01
ed0d03fff4f5030903090708d40306f2
060300fd03fbfcfdf9fefcfafdff03f6
f7e9ff0bfb0403fa02080600ebf5000e
000cf5ff02060502090205ff00fffdfd
01e8faf90f09f8fc00fc0406fafa18e0
0011fb1fff01000301f900f9fcf6fd06
07040901e306f9050f04fefbf2fb0c1b
f2fe10070a0404fe010d0807f9fffefc
06fdfdfb05ee011014060406fa1305f0
00e1feeafcfdfefff9f1050907f006ff
fd09fdfc06faf6ed00fa04fc03fffdfa
f901ff05fb0307ff050008160000f9fc
02f907ebfc11f80dfc0609030d17ffea
040702f9ff07f8fe02fbf604fbf10106
12f203030717fc0300fc07f9fff1f807
0a0316ff05030202020308fffffefdfd
f6fdfcfcf504f402fe050404f200f7f0
e502ff07fcfef9fff9fef2f9fbfd0bf8
f6000e0112020bebf001fdfb0b070c14
f907f4140903fd03edef0608fcfe02fd
fdfe08ff080500f41103f9ff0c05f612
0c01fa0503f800ff00fcf505f41103f9
06fdf403fb0901f3f90ff9f8fbf000ff
0907fd0206010d07f70705f9fffefbfc
f11cf8f10a00f105ff010b00edf4ed08
fdfe09fd01fa01fcf6fc05f5ff0df309
060cf5fdf7140205fcfffc04fcf9f300
eceeebff010d0503fdf60c05fef8fcfd
06f8e20506050006fb170703ff00e0fe
0bfdf809fefe03fc02fffc03fc04fbff
fff81004f4fef3060202040bf208e4f4
04fa1a000105040409020101fdfffbfb
f0f5f5ff09fb0317fb0307060202eeff
1207f90efdfffaf9fffff9f50904020d
00f712051a010716041000fffb1101fc
05e60dfc05ff01fdf1091307ff01fc02
efed000e00f4fa0502fe05f9d40613f5
180001fc05f9fc00fdfa08f1d5060200
f40bf9f3fdf0fd030d0a0df5fcfb0206
04f404f908050102faf8f80dfcfeff00
05ed090701f7fbf8050905ffff0bfbf9
0c07f607fb0101fdf2fefff6020304fb
fdf40f02eee809f60701fdfe010bfbf1
f7f5050e060503000f0700fafdfcfc02
ee0005fdfbfefff6ff0502fbdb04fe01
fc04fe03ff00fcfe09f3fcfb000c0218
f9f1010a0cfe040afffe0804f201fffb
fcf4fff105090203f4000cfafafbfcff
030603fa0200fd07090602060c0cff18
f8fdfaf6f5fdfdfdf6fbfd02fb030e03
0602fe09f9000303040907f8fc03ecf9
07fe110504fe03fffcfffcf5fefe01fd
f60010fafeda0a010106fd02faf906eb
0bfcf513fefefdfdf903fffdfaf30bf3
060400fdfd01f211f6fb090b0908f2f4
06030201fe02000502f5fff902fffffc
00fffdebf5edfdf2f7fffe02f7f404f6
fa02f81afe03fe02fffc00f3f200fe0c
0808060bfafb04fe05fffefc02050603
f2f90ee50203030302f30209feff02ff
110604fafa0aff040408fdfef10bf002
16010901ff0101fcfcfcfaf8f8171110
13fa0f04fb01f90108060700fb10ee01
fd0301e905fc05040303feedfbfdf801
020dfff8fffafadb050000ff08fa02ef
03080506fafbfc00fbfffdf6000407f8
fe11fc130018030702ff0408fffdfb10
fff5030eff0103ff04151112fffefeff
05f4fafc0f0afffb010306fc14eee5f1
0ffd04fa00fe04f90200fbf811fef703
03fb0705fbf7f2090103fb0c0afff705
f9ee0608000004010403040afffbfcfd
e3030003f0f40519fd05080307f8e80d
0001f5ea01faf7f9fe070400ea07ef05
1d0902f4ee110c0512f90408f50b09df
03dff5f2fa06ff00fb0bf9fb01fffefd
09f204fd01d1f1f9f6fb0206f41aff0d
fefe08f4f901feff01f60305f108ed08
03160110050109f40af6fe02faf10804
eaeeeefffe00ff060f0c09070001fffc
000afb0315f1f304f6faf90afc0007fc
02fd0503fbfbfdf9f9fbfdfc15fdf1fb
0205050503edeffc04fd0c02e8fffc09
f9fdf5030501000901010809fafefffd
0703f7ee05fcfa000f01ff04fa07f413
fc050116fbfefdfafcff00ee0408080b
01fb04e50902f808fd06fc0008fcfcfa
fc0bf80403020602150804fefdf9fefe
ea00170f090bfe15000202fbf9f2010b
f2f5f60603fbfdfc0600f8f7eef7ef09
130afdfd060603010609030410040819
f808ec080402fe01fcf50d05fb01fe00
00070c03f9fcfd04000302f50607fd0e
00ff04f20000fe02fefbfa040afae403
fb0507080503fcfe09040706f7040911
faf50af206fffe040b09f503f901fdfe
fe0b040002ff11f812fc0307f1f81011
f7fc0602fb00f7f9fbf3fbfc0204e9f1
0cf20afff9fc05fff9faff02050204f1
00ff0c040602080203050009fcfefafd
04f3f3f0010afcf006070b0107fd08eb
06f306edfa02fb04fe0107fefe15000a
fd01140600fbfdfafff00c06fe0100f2
f601fa13000701050af3fc08fffdfefd
f6fe01f0e706fa08fc04010409f9fdf7
08ff00ef00f702fe03f404fdfd0a0ef6
09ff09fc0709fcf5f3040904050efbf3
f80411f7fb0401f910fd090c01f80000
1000f70410f8e302fe0004f50905edf4
1801f5f5fafdfffbfffc01060b06fd07
fcfcef0208ffef19ff04fbfd0ffb0602
fc03f70705010609060804fefb00fdf9
05fbf9f2fff505fa05fa060b01ff080a
0207eb04f8fc02fbfafffa08ff08ee00
fdf606130102f8000304f90efdfee2ff
12ff0004fe030502110801f9fefefcfc
0007f506fd04fd19ff07010604fe09f8
040afafdfffdff00fe0105fe07f6fa06
070a09110101f009fbfe070908ff0408
060013000703fe02fffd08fefafffdfe
f4000704fffb1001070100020713fdfc
fff90d03fa04f8ff08fff9fd00fd02fe
12f70701fcf20cff10f7fc04fb1e0301
f2fcfefffdff04ff11f7fefcfd00f8fe
0ffb0109fbf6f8190400ffffeefe06f9
fa0102f2f800fcfefef6fe01170d0cfd
00f6fb05fcf705f7fb0d041b0204fc03
01fc01050305ff0102000707fdf6fffd
0100fef408fbf5f90504f701edf706ec
f6fbed0200f8fefe04fefa0227fafa06
0a0f0304ef07f105fdfe0afefc0d100a
09fc0e0202070300f509f8fefffdfdfe
f5010800edfef1fe030500040200f9f7
e6f413eefd01fdfb03f3f9fc000b10ff
150607ffe8f9f0fd04fff9fa2b0df6fb
f6eee8f608040306fa080502fafd00fc
0dff00f9fa0101ff0a070007070902fe
fc08deff05fc01fcfffdf3070305f700
05f60df0fc0300f2f40c03ff0502e9fe
02fc14f504040002fdf5fbfefefcfd00
fff708f40ffbf604000808fcfc020303
fc03171703fafa06f909fcff05f2ff00
05f8f10802f01216fb0cfafdfa0bf607
0af80fff03ffff0b0407f6fefd01fdf8
fcf0edfe12f519020703040a12fb08f4
0a0704fcfd01fdfefeff02f8030709ff
04060e12010612f6f3fffe06ff081404
fc07001c0504070207000211fbfbf6fc
fd0002ea0103fa0b0503040903f706fc
07f203f5f8fcfa06fbfcfb0a02f90514
010bfe0900030112000504f4ff08fbfd
05eef8ef000c010208f8ff13fef6fdfc
fe0725fc00081304ff15050af80502f9
00f404fbfcfbfafafb02fc030001fafe
0202fe0012fbe80bf6fe0702040af90c
0c04fb10050a0205040afd0dfef700fd
f0fef70e0c0507eb010b06080af6fe10
0cfafbf901f5fd01f1f6ff0201f50ff6
020ef90200fd00ef05050602fd0cfaef
03fc03fa000805fefc03fe0afff7faff
12f914f70805e50a040309fb10fcfdf2
10080f08fcfa000002f80504f106ee0b
f0ff0a0802fef1fcff0302fa0c00fbff
f6f0f40607fe04080a07070dfefdfdfd
fd0908e205fcfbec04050405080709e0
00f4f7ec03fefc01fe07fdf4090715f4
0e08e905f914ee02fc05050806fffb01
0706041500fe0204f6fbf7fbfffefefb
f707100909fb0704fcf6ff06f90afff7
0805f6fdfe02fcfe0008fff7f9f3f40a
fe05010603f9f4f4fdf9fc071ffcfafb
f70910030105ff02fff108fefd00fefd
000b0200110bf80003050302f8fbfa00
f9f30002fafff8fdfcf703fdfeebf800
050eff03fcf90300f800ff08f7fd0501
05f6fdf504090507fa090e01fdfafc01
0d0cf3fef104fcfe010803fe0b010707
1603fff30001fdfe06f8fff6f9040ef4
f908ef00fe05f6f405fc070004091106
030c210b09fd05fe0a05f513f7fefeff
ff29fef0030ae7fa09010401f60afff0
f60afe0ff5fa05fdf807060bfaf8f607
0d13fa09fee0fc05070b03f8060ef6ed
0600030000ed07fdfdf8e6f4f9050010
04fd03fbeafdebf4f603fe0eec0ff4f7
0702030514fadafef20a09f3fb040c0a
fefc0803010205fd1bfae6e20b120df7
00000603f506edff05f704ff0300120b
01090efb02020dfc0cfbfbfd04100807
0f0cfc06031b15010914fbfc070202fb
00030703fe0b0106fa180e05fff400ff
ff0101ff0c11fdfddd01fcf3f903f903
000b000f11f7f8f8ed0010f90704f811
ff02060aeb05fa0c05f30609000602fd
0413fa0a13110209f207fd01010bfc0e
010101ff1718040a00eaef0a0afe011a
09080802080ef71109eefcfa050af4f6
ff0802ffecff000cfefded19090202fd
fef41bfbfe00040006f4f7f6f50204ff
03010502ff1e07fbfd1a08f9fafae90b
fc171b15f6ef01faffe209fcf70206fa
feec1010021af5000715fc0c0a030207
0c0eea00fe08f5f5fb0c05ee05f40703
02000603e5eaf8f5ffe2f500e6f00609
04eafa02ed2ffa00f2fdf8f305000404
01fe0803f306ff09f31109fb010704fd
f7ea040ff70c09f3fdf602020ff9030a
01020200f000140a18fffb04f9fcf209
f7050a08fefdfafc060006041002ec0c
0404f401ef010dff040305fffd030300
f702fc070204100208fd1d0cfa000efd
fd020205190501fffaf1faed0cfcf9f6
0703fe08f30901fef6f501f8fd09fbf0
070a010a09d8000803ff00f9ff040600
f007f9f7fc03020bf705fd081a010800
ff030404fef8e3faf8edfff9fdfb1211
00ee08fcf2fdf60200f5fcef0a080517
fa0007090001f4f9f100f3fcf7020106
0ffff40703020804ee06fdfc0e09f8fc
05010004fefef60902fa1b061903eaff
fef7fcfbf7fc210cfafef5ed0afd0405
0401f901f5080c13120a1efe0506ff01
fc0fef1404fcf20801fefdf0f802120b
05010305f4fe0203faf9ff020401f901
fe16ff07f7f1080fea0b0cf908101300
fc07fdf8000feefaf80705fe04060406
fd020a0316fa0306f207020504fdfe08
fe040202dc25e601ed0d07f8140bf0fa
f4fb07fe04eef5f9f60b0e00ecf3ff04
f909fe02f5fce8020e07030600080705
f6f903fd0efa0204f10520fdec04120a
0300ffff0b00f9ff04f5f903f0fcfe0a
f9fdf6faf4fffcf919fdf40cff07f908
07040cf8ef090b04090e03f80303fd00
f70aff160d00ff0eff03f102f5fa0805
01fd040028fefe03fb0401ed030e0500
090800eafe070808fb06f9ed16f7040a
11f60200ef07fe02130e0407fe030501
0408000301000208ecf8ffeff3040012
07ff030303fcf4f9fffcfdf5fd020708
fdf3f909fb04fff0030afdfd02f8ff06
03fafd07020a01fb010cfff407000307
fcfb0bff0907fe05f2f6effd10fb0efc
03000101fe0212ecfee408e9fffffd09
f11dfffefb1306080400fafd03fd0a06
0706000c04f7fd010200fefcff000501
fafdfb040a090ef810f0fafffc0405ed
03fe020203f81203ff02fef9fffeff02
01fa08ef01fdf8f8f9f80b0a02f00506
0f02060205f914f9f801070301fefe00
f918ff020302fb04fd0bfcfc04ff0208
00fefe02db00070af60dfb0010eff0ee
e60afa01ee01f6042106f7f90b0a1408
0a02fcfc0f0c1012fe0301fa01fffc00
f7ed07fafaf704040702ee0303030ff8
050308fe0402030a01fc040cfffb04f9
ff07fc0d01f300f006fc08f5fc0afcef
02f6fffffcfbfa0702f9fefd04010afe
fb01f906020bfdfd001702ecf9eefaf3
01fffe07fbf7fe000801f20afd1200f6
0d0e070dfe070bf408f6f7020b1401fc
04f8fdff0106f0f600f5fcfe04fcff05
fb210605000300fefc0d010f0f16fa02
00090303feed01f7e2faeff003feed23
ed04f8ec05fd03e5fcf205f9f2fd0704
07080efafd0e0d09f806fbf80303ff03
0c00fefaeff5fb0dfb09030208fff7ff
090303020309ffee0af904fc0413ebe0
fdf90319f702fbfdfafc01f312f00319
020d060010f403fcfaed000202f90703
f009fe0e0cf8fcf7130b0a0ff700f901
04010203110306fbe227f6fceefce700
f1f6fd0000dced0010f6f2fa00fb1201
f905fa0cf71bfa03fc04ee0502fe0500
eb0d23010704f20bff020204e71ef703
030202020c01ff0705020403f207f901
00f700070107fdf2f60600eff7fc0203
f4020300f5f9fb141304080c02040202
fcf802f8ff0201080101000d14fafe04
fe06000507fbfa0cf3f6fffbfa0806f9
f10a04ebfe000206feefec08e71ae7fe
0800f902e30a01090f010b01ff08fcfd
0f17f802f605f8eef002f4060609f800
04ff0003fc04fcff0006fcee030302f7
0610fbf2fafc011808fe16fe04fc0c0b
fc07fc04f8fc1010020707fc080306fd
00f70df1f906fcfef9f90a0ffcfafe09
04020504fbfefefafcf50b1308f6fdf6
eefaf40609fcf9f6f604ee0af8fde802
0603fdfc07fd07ff0201100709070404
0afb12fb0500f30407fa01f607082000
050103ff020b021406100201f60a021f
f40307fc0710020402f9fb0cf5f90005
09fd0309fc01fefb0208010803fc01fe
fa0404ff070500f604f20918faf8f8f7
04070302f501edeffa07e5032afb20f1
f902f20beefcf20924041705fc0900ff
020304010706f906ed00ef0200050402
fb07fbf50c06010d14070ef4fef3faff
0208ff0508031709030808110f02f708
0cfa0bfcf2040a01f70bed1df6f8f90a
fafdfefd0af607f9f7ff0e030a0902ff
e3fa0cf10afefc06fc0005f31af8e307
070400030002e00200f30004000d0c03
fc010409fd03ee0306fb16fafffa0301
05080a04f9faf4fe0406010205040700
fa0afd0406080500ff011a08f9fd13f6
fe02020008f7f612faecf7fdf505fef9
f600fb130603fcdf06fefbfafc00fc05
04000b0d0405f7020e0efb1001040102
16f70508f80103fff20a0102fc070506
05ff0401fd1bfcfd0917effffe03ed07
05040401060506fffd04ee010412f403
0207fe010606e8fdfbf60402ffff0201
02020a0103fcff0002011402f7060d00
020308fffe02fd070b0a04fa000c0102
fd0cfdfafaf6031406f904080c04fa10
f905fe0d0619fb16f3fefe01020a0a02
1dedfcf70501fcf8faecffe60b0cfef3
010b01030ff6f8fb03f701f4ef020a0e
0504f50c0e00f2040ff000f71105fef3
fe090104eb0f0404000506f9000700ff
fc08fe06030104fe1008fc08040c021a
01ff0400fdf811080c0403f90a02f8fd
f504e7011202f8ff0202fe08fd060102
030009fef804fdf3f30d03fd02030202
120bfc09fff60f0910080806f700f6f1
fa02fe03fcfe11fe020200ee020416fd
fd0903fb02faf5fc0d0ffffa0002fb0f
fe05f10b06f5d7000707080afd070601
fefdebfe00fe0afffd01110002f421f8
00070600fafa0d120bfce916f1060904
0ceb01f5f4f908ffff05f7110108fb02
f604fc020301fe0b0507050afb000100
090aecf2040a0f0bf8fcf9ea14fdfe0b
06ff04020302f501f0f216fd030223fd
0d0b08f603ff08f9fcf106fefa19f00a
030b0e08f40efb0d0208190407030502
f809060e07fe03090011eefef6052808
06060901fff701e401f604100102000c
fc0cfdf102fc031606f707f5fe0ff904
03010106fa0ef7110303000804060bfd
f909fbfc03020006010001fbfb09f705
040501040a01fff00cfe17f9f5f4000e
12fc0a0bffef01050b0101fd06fc17fe
07010006ff07f00ef904020104040701
0502040a000201fbfcf60b090c06060c
01090001fcff05f400f9ebfcf70106f9
f709fb0110fefbe707f3f900fd0ffa0e
f90d01fe120f03f7f307f4fd0007feff
f80ce604fc0e0202f40317fdf00d0c07
04090203f70408f3ec06060afe05f600
f2f803f21e06e3f5f002f6fe09fc0cfb
04010b00fcf6f9f1f2070412ff080601
faf60503f7fefe04f60111fb0901fcf1
010203fef7f3e6f90bf509f80002f0fe
01020606f90aff1103f3fb1e0df5fbed
01080607060107fc0a0e0301fe070001
f6fb07fffef6f2f8fc03f7f5fcfbf707
0400040105010712f6fe0afc0709ecef
0ffcfef5ee08fcfbfc020301fc0eed02
0109fb07fe01fef100fffbff05f8fd03
01fcfbfb060a06fa0efdf1f804f9f500
05ff0703feff02fe01fafcfe12f1f303
e5070000f5f502ff0bfc1400fa050303
06090602dc0803fefd06f80308fc0803
1602020002090c01edeffb03ea0d04ff
00000100fafcf70610faf3fdfb01f009
fafffbf90afefd01f8ff08f914fafeff
0e04000aec05f8f8ff0d0cfb0008fd09
160006fcf207fbfe0efb02f30603fa0a
09020204fbf605f4fa0beb06010009e3
0806ed14fef1fee1eff705f50d1307e7
0b0a18090dfe060e0502060d08060103
0df8f0010cef03f70306ebf60df018fd
1c05180604fd0af5fcf30803fefe00fe
ec03fcf210f3f90e04f90b0304000002
0afa06faf9f901f8fbf6f804ff02fd00
0b030501010aecf6fb0eef030c0110f7
0205fc00f7000401f6180401fffefdfa
09e7060700edfcfb0304000b01010305
060f02fe020201fa0be607000011fdf8
03fc08050302fdfafff8070c0afc1200
050df409fe00fefc0ffd0aeffdfefe00
0d0006ff02fdf9fa160001f901010200
040c01fa0208f7f8fb03fa02fd00fdfc
fffa00fceb050101fc06f2010dfd02fd
f608f90dfcf90408fc0314e000fffffe
0704fdeafdfafdf704f6fa0cfe030101
0c0bfb1a08fbffff0404f50002f705fc
050301000df00ef708fc03f102fdf906
05010909f2020203060efcf8fafefdfe
01010905010ef70bf41000fc03020202
fd070cf807f300f50807fcff06fafa06
03f9050a0405fdf7fafbf0fdfc0aff0c
040708010402f700f5e7fff3fffff9fe
1df10908120500f20f02040002ff0703
05fafb0bf8f9effd0ff5fc0c0011fdf7
04fb04070cf4fdfc03fef700030802f5
0e000709f5ff00fd0afc07f000fefcfe
f5f9f8fa17fff00bebfbf50f01020300
ef010bf301fefaf70605f213fcfdfc01
fe02fb04f100fa0df905f7ec03fb0af2
fe0ffe09fa10f8fa09f40504fdff02fd
082700f7f8fef5040401fd000201fe03
0534060dfb0ff6ff1708040cfa000807
04f50704eb030b0b0e1301070901f7ed
ff06f6f9fa01fb02ed0af9fd00fefcfd
fffefb18fa0005fbeffef0fd03020303
03ffee050503f305f7fa19f9effafd04
fbfc0a00fff600fa09020203080de5f8
fc07fc01fff706fffb021307fef9fcfb
effc01fa0a0b07ff00fc1e0203030204
f8020b0afd07f5f10008f805f50408ff
0404ff070cf7f61605020507f4f8f2f6
11ebfdfefb05fb04f9000a08fafffbfe
0f0603f3f1fefa040a0308ed04000502
f70203fafe0001ffeff8f4f8f700f305
070300ff0bfb010b02f60af6f401f904
00ff05f90105fff5f90aec03fefffe02
f706eefef8fe10f6fc02ed05010103fe
06002309f900fdf3ed08ec0505fb0204
04000709f312110b0d1b110706fff9f4
fc0b1901fb06fdf801fff9f8fcffffff
fb02f30e0807f6050feffcfe05ff0102
fa0902f4f9fafdfffbfbff0cff0300fa
fd06fdfa0c06fdfafc03f41200fdeb10
0411fffc02fffdfd1202050f0001fc00
def0040105050202eceefbf602000300
0cfdfff5fff7fc09080100fcfa01fe01
090705f4fffdfaf00503041504fb0207
0604f40efd06f402ff0d07f5fafefcff
05f00ff6fa03eafb03faf10507020500
f8060806f700fd08fd10f50bfcf5f3fe
010203010209f00c0afdfaf7f9070b01
13fdfffc00f5f5fdfd1004fdfdfdff00
f7fe05f10ffa040713f7fcf002030003
ed0a00f0f9f608fb0913000507fb00fc
ff08fc060ff0ff0efee315f9f7050804
f800f7fd04f9f6fdfaf102f60000fefc
fefb1100fdfdff070801041201000304
0512fdf2f70005f806000603fef9fc02
010603ff0012030204fd04f504fdf8f9
03fef30307faf9f100fafbfcff0001fe
060fff11e1fcfa08f8fbf30802000001
f1f8020a00fd0900f2f9f509fa0af904
fffff501fb02f0fcfd1b180804f80b05
f7f4f7fc00fdfbfb040108f8fbfff800
060401fdfffcfe0e02ea0bf906030701
03f402f7fcfffffbfef5fbf6fefefdfe
01010bfd011704f8fc0cf91bff0201f9
0af90400fbfaf8f9fdf9f9f7fe00fefe
00121504feef08f0fded04f602010004
06070ff0fdfaf503f601f601fcf50406
030400fe03f7ff07fe01f2f7fb0d0a06
e4070b0c0a070e08ea1212fa00fafdfe
15f417050ff104070806021300060402
0e0a13f1fafdfc0519fdf219fafff501
0606fffd08f3eb081cf90aeae006e817
f2fa0c03feff07fefae6fc08fe01fefd
0906f7f5fdf410e7f5010b1606010102
0c1df805f607f9f407fc00e3fef80c01
06050904fa0f0e02f701f7f2fe08fcfe
06060500f902f5fff01a0cfffffffffc
f314f103fd100b000a1006fb02010204
f5f8f8fdfd02f8f502e5fb020403fbfc
fa020b00f1f5fafe06fffc03150ef502
08f1021b00fff5f7f80e03fffafefeff
fb02fefc0903ff09f30503e404020302
f8000efbfbfd00fc04feff020200f8fd
020209fff3030308f6fb0303fb0205f6
f209fdf803f9fc0607faeff6fffaffff
e4f3f1090b09fbfe03fa050d02060202
0101f2e4fffbfe06030afc1303fafc06
050bf9fe14fcf1fc150fff020ef60701
ee0703e8fdfbfdf707f406e8fb01fffe
06f80ef6f703052604f8fd0904ff0202
fffce4fe01fef603f606f604feff05f4
06010005fafdf5f0f308f4d601f30106
0afcef06f1f218fff507f5f8f800fffe
1100041802f4150df809010e05ff0203
ff06fe07fef7f600040b00ffff09ff09
040803ff09070df70206fb1501f7fdf5
fcfe0808fff502030dfafafafbfdf9ff
01fa030e02fc0bf9fefffd0205010702
00edf50bfdef0afffc08f809fcfff5f8
0108f90400e9f60303ff00fd04e60a08
10f91605fb05fcf7f4faed02fefcfefc
f9fafa04e8fdf116f605eff401020303
09f91a05030504fffaf5ee07ff0802f9
06fb0307faf8260705051002f6f60b13
0af5ea0f01fdf2f90507fe01fef9feff
0204ece005020a190108ecfc02070103
0504f2f6f400f4fef2fc0a0ff7fef4ed
010a0909e706fa0403f804e7f1010705
f801160afcf50905080616f8fafdfff9
06fdfb00fd06f408080af9fe07020007
00f801f3f902fe09fefd02f9fc07fcf4
04fffbfa000104f4fe0d09ff03f4f10b
00f8fa0201ff050e03fcfdf601fcfcff
fe0af6eb0307fa00fe04100600030201
0306f900fe02fdf9f9fd080ef9f3fbfd
0201ff030a07000901040bf60b010404
0704fa0006f5fbfdf8fef802f9fffdff
0514090606fb0301f91205fe08000401
f8f307010402f7fcffec1e01f702fc01
fc090104f2f2ec04fd0d09fd051f0102
1300f8fffaf8fd03fdf40a0afdfff901
120603f805fafb03fd0704f803020702
e9f903f5fbfd00fef2f4fa26f70bfef9
01020b02f90f01030807fb08ff1902e0
f917fafef9fc06fefcfbfef8fef701fd
0cf4f3f5feff01000202140700090202
0b01f4ff02fbf6fe1a060704fffbfdfc
040bff05fefb0df904080b00ebff11f6
f50c11fff5fdfdfc04fc0bfefdfefb00
fe00f9fa04000f0cf50d15f102020401
12f500f3fd02fbf0f3fefbf904ff0bfb
05fdff0300fb08f90a080307e808ff04
12ea101800fe07f8fd09edf0fefd00fb
060f0e0605fdfef505031c0601020004
f70318fcfaf705fff5fa08f6f300f6f7
0704f607fe04f7f50decf31506fff7fe
06ff09f1f50001feee02eaf9fff9fbfe
e9f9fc0d100aebeefd01060301070501
